{
  "version": "1.0",
  "truncation": null,
  "padding": null,
  "added_tokens": [
    {
      "id": 0,
      "content": "<PAD>",
      "single_word": false,
      "lstrip": false,
      "rstrip": false,
      "normalized": false,
      "special": true
    },
    {
      "id": 1,
      "content": "<UNK>",
      "single_word": false,
      "lstrip": false,
      "rstrip": false,
      "normalized": false,
      "special": true
    },
    {
      "id": 2,
      "content": "<BOS>",
      "single_word": false,
      "lstrip": false,
      "rstrip": false,
      "normalized": false,
      "special": true
    },
    {
      "id": 3,
      "content": "<EOS>",
      "single_word": false,
      "lstrip": false,
      "rstrip": false,
      "normalized": false,
      "special": true
    }
  ],
  "normalizer": null,
  "pre_tokenizer": {
    "type": "ByteLevel",
    "add_prefix_space": false,
    "trim_offsets": true,
    "use_regex": true
  },
  "post_processor": {
    "type": "TemplateProcessing",
    "single": [
      {
        "SpecialToken": {
          "id": "<BOS>",
          "type_id": 0
        }
      },
      {
        "Sequence": {
          "id": "A",
          "type_id": 0
        }
      },
      {
        "SpecialToken": {
          "id": "<EOS>",
          "type_id": 0
        }
      }
    ],
    "pair": [
      {
        "Sequence": {
          "id": "A",
          "type_id": 0
        }
      },
      {
        "Sequence": {
          "id": "B",
          "type_id": 1
        }
      }
    ],
    "special_tokens": {
      "<BOS>": {
        "id": "<BOS>",
        "ids": [
          2
        ],
        "tokens": [
          "<BOS>"
        ]
      },
      "<EOS>": {
        "id": "<EOS>",
        "ids": [
          3
        ],
        "tokens": [
          "<EOS>"
        ]
      }
    }
  },
  "decoder": {
    "type": "ByteLevel",
    "add_prefix_space": true,
    "trim_offsets": true,
    "use_regex": true
  },
  "model": {
    "type": "BPE",
    "dropout": null,
    "unk_token": "<UNK>",
    "continuing_subword_prefix": null,
    "end_of_word_suffix": null,
    "fuse_unk": false,
    "byte_fallback": false,
    "ignore_merges": false,
    "vocab": {
      "<PAD>": 0,
      "<UNK>": 1,
      "<BOS>": 2,
      "<EOS>": 3,
      "!": 4,
      "\"": 5,
      "#": 6,
      "$": 7,
      "%": 8,
      "&": 9,
      "'": 10,
      "(": 11,
      ")": 12,
      "*": 13,
      "+": 14,
      ",": 15,
      "-": 16,
      ".": 17,
      "/": 18,
      "0": 19,
      "1": 20,
      "2": 21,
      "3": 22,
      "4": 23,
      "5": 24,
      "6": 25,
      "7": 26,
      "8": 27,
      "9": 28,
      ":": 29,
      ";": 30,
      "<": 31,
      "=": 32,
      ">": 33,
      "?": 34,
      "@": 35,
      "A": 36,
      "B": 37,
      "C": 38,
      "D": 39,
      "E": 40,
      "F": 41,
      "G": 42,
      "H": 43,
      "I": 44,
      "J": 45,
      "K": 46,
      "L": 47,
      "M": 48,
      "N": 49,
      "O": 50,
      "P": 51,
      "Q": 52,
      "R": 53,
      "S": 54,
      "T": 55,
      "U": 56,
      "V": 57,
      "W": 58,
      "X": 59,
      "Y": 60,
      "Z": 61,
      "[": 62,
      "\\": 63,
      "]": 64,
      "^": 65,
      "_": 66,
      "`": 67,
      "a": 68,
      "b": 69,
      "c": 70,
      "d": 71,
      "e": 72,
      "f": 73,
      "g": 74,
      "h": 75,
      "i": 76,
      "j": 77,
      "k": 78,
      "l": 79,
      "m": 80,
      "n": 81,
      "o": 82,
      "p": 83,
      "q": 84,
      "r": 85,
      "s": 86,
      "t": 87,
      "u": 88,
      "v": 89,
      "w": 90,
      "x": 91,
      "y": 92,
      "z": 93,
      "{": 94,
      "|": 95,
      "}": 96,
      "~": 97,
      "¡": 98,
      "¢": 99,
      "£": 100,
      "¤": 101,
      "¥": 102,
      "¦": 103,
      "§": 104,
      "¨": 105,
      "©": 106,
      "ª": 107,
      "«": 108,
      "¬": 109,
      "®": 110,
      "°": 111,
      "±": 112,
      "²": 113,
      "³": 114,
      "´": 115,
      "µ": 116,
      "¶": 117,
      "·": 118,
      "¸": 119,
      "¹": 120,
      "º": 121,
      "»": 122,
      "¼": 123,
      "½": 124,
      "¾": 125,
      "¿": 126,
      "Â": 127,
      "Ã": 128,
      "Ä": 129,
      "Å": 130,
      "Æ": 131,
      "È": 132,
      "Ê": 133,
      "Ë": 134,
      "Ì": 135,
      "Í": 136,
      "Î": 137,
      "Ï": 138,
      "Ð": 139,
      "Ñ": 140,
      "Ò": 141,
      "Ó": 142,
      "Ô": 143,
      "Õ": 144,
      "Ö": 145,
      "×": 146,
      "Ø": 147,
      "Ú": 148,
      "Ý": 149,
      "á": 150,
      "â": 151,
      "ã": 152,
      "å": 153,
      "ç": 154,
      "è": 155,
      "ï": 156,
      "ð": 157,
      "ĉ": 158,
      "Ċ": 159,
      "Č": 160,
      "č": 161,
      "Ġ": 162,
      "Ģ": 163,
      "ģ": 164,
      "Ĥ": 165,
      "ĥ": 166,
      "Ħ": 167,
      "Ĩ": 168,
      "Ī": 169,
      "ī": 170,
      "Ĭ": 171,
      "ĭ": 172,
      "Į": 173,
      "į": 174,
      "ı": 175,
      "Ĳ": 176,
      "ĳ": 177,
      "Ĵ": 178,
      "ĵ": 179,
      "Ķ": 180,
      "ķ": 181,
      "ĸ": 182,
      "Ĺ": 183,
      "ĺ": 184,
      "Ļ": 185,
      "ļ": 186,
      "Ľ": 187,
      "ľ": 188,
      "Ŀ": 189,
      "ŀ": 190,
      "Ł": 191,
      "ł": 192,
      "Ń": 193,
      "ĠĠ": 194,
      "ĠĠĠĠ": 195,
      "čĊ": 196,
      "ĠĠĠĠĠĠĠĠ": 197,
      "in": 198,
      "Ġ*": 199,
      "er": 200,
      "de": 201,
      "==": 202,
      "on": 203,
      "re": 204,
      "ĠĠĠ": 205,
      "Ġt": 206,
      "st": 207,
      "at": 208,
      "ĠĠĠĠĠĠĠĠĠĠĠĠĠĠĠĠ": 209,
      "def": 210,
      "en": 211,
      "--": 212,
      "Ġ0": 213,
      "ine": 214,
      "it": 215,
      "/*": 216,
      "Ġ*/": 217,
      "define": 218,
      "Ġc": 219,
      "or": 220,
      "he": 221,
      "al": 222,
      "ion": 223,
      "====": 224,
      "Ġa": 225,
      "Ġ(": 226,
      "le": 227,
      "int": 228,
      "se": 229,
      "Ġb": 230,
      "**": 231,
      "ar": 232,
      "00": 233,
      "es": 234,
      "Ġ/*": 235,
      "Ġthe": 236,
      "ct": 237,
      "Ġ_": 238,
      "IN": 239,
      "Ġf": 240,
      "Ġu": 241,
      "is": 242,
      "Ġp": 243,
      "ed": 244,
      "if": 245,
      "an": 246,
      "ut": 247,
      "----": 248,
      "ĠT": 249,
      "Ġs": 250,
      "ĠC": 251,
      "ĠS": 252,
      "Ġo": 253,
      "ic": 254,
      "Ġm": 255,
      "ER": 256,
      "am": 257,
      "Ġre": 258,
      "ri": 259,
      "ĠR": 260,
      "========": 261,
      "Ġ@": 262,
      "pt": 263,
      "as": 264,
      "ro": 265,
      "//": 266,
      "ES": 267,
      "ĠA": 268,
      ");": 269,
      "ĠP": 270,
      "Ġin": 271,
      "Ġto": 272,
      "ing": 273,
      "ĠĠĠĠĠĠĠ": 274,
      "ur": 275,
      "et": 276,
      "pe": 277,
      "ac": 278,
      "Ġ=": 279,
      "****": 280,
      "Ġ1": 281,
      "EN": 282,
      "OR": 283,
      "Ġn": 284,
      "Ġw": 285,
      "ST": 286,
      "ĠĠĠĠĠ": 287,
      "32": 288,
      "ĠĠĠĠĠĠĠĠĠĠĠĠĠĠĠĠĠĠĠĠĠĠĠĠĠĠĠĠĠĠĠĠ": 289,
      "Ġ__": 290,
      "Ġcon": 291,
      "lo": 292,
      "Ġst": 293,
      "Ġof": 294,
      "ĠI": 295,
      "ON": 296,
      "id": 297,
      "ent": 298,
      "::": 299,
      "Ġ\\": 300,
      "Ġuint": 301,
      "Ġ{": 302,
      "ad": 303,
      "ul": 304,
      "Ġd": 305,
      "AT": 306,
      "el": 307,
      "SE": 308,
      "ĠM": 309,
      "Ġv": 310,
      "IT": 311,
      "RE": 312,
      "ru": 313,
      "ble": 314,
      "lu": 315,
      "im": 316,
      "esp": 317,
      "aram": 318,
      "CL": 319,
      "un": 320,
      "ĠD": 321,
      "ig": 322,
      "ex": 323,
      "os": 324,
      "--------": 325,
      "ype": 326,
      "ĠE": 327,
      "!<": 328,
      "Ġ/*!<": 329,
      "om": 330,
      "Ġis": 331,
      "ist": 332,
      "ĠL": 333,
      "ff": 334,
      "end": 335,
      "Ġbit": 336,
      "able": 337,
      "ation": 338,
      "ED": 339,
      "CH": 340,
      "ue": 341,
      "um": 342,
      "Ġan": 343,
      "AL": 344,
      "PI": 345,
      "ter": 346,
      "param": 347,
      "ol": 348,
      "AR": 349,
      "TR": 350,
      "ag": 351,
      "urn": 352,
      "/**": 353,
      "ot": 354,
      "Ġth": 355,
      "ce": 356,
      "res": 357,
      "Ġ:": 358,
      "__": 359,
      "il": 360,
      "ode": 361,
      "ate": 362,
      "iz": 363,
      "Ġfor": 364,
      "ĠB": 365,
      "turn": 366,
      "================": 367,
      "ĠF": 368,
      "ction": 369,
      "ĠU": 370,
      "Ġl": 371,
      "INT": 372,
      "MA": 373,
      "ata": 374,
      "ĠG": 375,
      "ask": 376,
      "Ġ}": 377,
      "Ġconst": 378,
      "LE": 379,
      "em": 380,
      "UL": 381,
      "ĠĠĠĠĠĠ": 382,
      "con": 383,
      "Ġbe": 384,
      "Ġint": 385,
      "ers": 386,
      "ĠĠĠĠĠĠĠĠĠĠĠ": 387,
      "DE": 388,
      "Ġh": 389,
      "us": 390,
      "********": 391,
      "set": 392,
      "Ġ2": 393,
      "ult": 394,
      "ef": 395,
      "ME": 396,
      "Ġ-": 397,
      "and": 398,
      "oid": 399,
      "<<": 400,
      "ĠO": 401,
      "ize": 402,
      "ption": 403,
      "Ġ//": 404,
      "ESP": 405,
      "TI": 406,
      "Ġand": 407,
      "put": 408,
      "ve": 409,
      "ZB": 410,
      "0000": 411,
      "th": 412,
      "ruct": 413,
      "loc": 414,
      "ch": 415,
      "ĠN": 416,
      "uff": 417,
      "pp": 418,
      "AD": 419,
      "FF": 420,
      "alue": 421,
      "16": 422,
      "Ġch": 423,
      "ID": 424,
      "all": 425,
      "TL": 426,
      "),": 427,
      "ition": 428,
      "ver": 429,
      "ack": 430,
      "FI": 431,
      "clu": 432,
      "ess": 433,
      "ip": 434,
      "UT": 435,
      "rib": 436,
      "Ġ#": 437,
      "AC": 438,
      "type": 439,
      "ĠThe": 440,
      "ĠESP": 441,
      "01": 442,
      "ribut": 443,
      "gist": 444,
      "Ġ\"": 445,
      "Ġon": 446,
      "))": 447,
      "ĠĠĠĠĠĠĠĠĠ": 448,
      "ith": 449,
      "SI": 450,
      "bri": 451,
      "brief": 452,
      "ERR": 453,
      "Ġreturn": 454,
      "ZCL": 455,
      "Ġde": 456,
      "ĠIn": 457,
      "Ġg": 458,
      "endif": 459,
      "ĠW": 460,
      "IC": 461,
      "oint": 462,
      "OM": 463,
      "clude": 464,
      "ay": 465,
      "Ġif": 466,
      "AN": 467,
      "Ġun": 468,
      "ke": 469,
      "----------------": 470,
      "ault": 471,
      "ame": 472,
      "()": 473,
      "PR": 474,
      "gister": 475,
      "op": 476,
      "ĠZB": 477,
      "AS": 478,
      "Ġby": 479,
      "Ġ[": 480,
      "US": 481,
      "OC": 482,
      "ort": 483,
      "ase": 484,
      "ile": 485,
      "include": 486,
      "ator": 487,
      "TC": 488,
      "Ġe": 489,
      "unction": 490,
      "Ġor": 491,
      "ser": 492,
      "ure": 493,
      "nt": 494,
      "ĉĉ": 495,
      "IP": 496,
      "up": 497,
      "Ġ/**": 498,
      "uffer": 499,
      "TLS": 500,
      "Ġnot": 501,
      "Ġthis": 502,
      "MEM": 503,
      "dd": 504,
      "ign": 505,
      "li": 506,
      "Ġstruct": 507,
      "ext": 508,
      "age": 509,
      "omm": 510,
      "default": 511,
      "ress": 512,
      "oc": 513,
      "ĠH": 514,
      "Ġ&": 515,
      "Ġuse": 516,
      "sp": 517,
      "zb": 518,
      "ace": 519,
      "ap": 520,
      "tribut": 521,
      "Ġen": 522,
      "art": 523,
      "void": 524,
      "are": 525,
      "ĠĠĠĠĠĠĠĠĠĠĠĠĠĠĠĠĠĠĠĠĠĠĠĠ": 526,
      "sc": 527,
      "ORT": 528,
      "osition": 529,
      "SA": 530,
      "UN": 531,
      "lock": 532,
      "err": 533,
      "DR": 534,
      "ptions": 535,
      "Ġvalue": 536,
      "PIO": 537,
      "Ġwith": 538,
      "omp": 539,
      "ime": 540,
      "du": 541,
      "Ġmask": 542,
      "Bit": 543,
      "rupt": 544,
      "ĠRe": 545,
      "ite": 546,
      "BED": 547,
      "Ġ;": 548,
      "ĠTh": 549,
      "EC": 550,
      "atic": 551,
      "add": 552,
      "Ġwh": 553,
      "BEDTLS": 554,
      "cc": 555,
      "..": 556,
      "CON": 557,
      "ran": 558,
      "fig": 559,
      "SR": 560,
      "CR": 561,
      "ir": 562,
      "Ġesp": 563,
      "oun": 564,
      "LI": 565,
      "ht": 566,
      "cl": 567,
      "uint": 568,
      "ING": 569,
      "FR": 570,
      "out": 571,
      "pos": 572,
      "->": 573,
      "per": 574,
      "key": 575,
      "Ġsu": 576,
      "ved": 577,
      "DI": 578,
      "fl": 579,
      "ool": 580,
      "return": 581,
      "vent": 582,
      "ly": 583,
      "qu": 584,
      "iel": 585,
      "Ġfunction": 586,
      "Ġse": 587,
      "ield": 588,
      "ect": 589,
      "ice": 590,
      "ense": 591,
      "ore": 592,
      "defined": 593,
      "Ġsize": 594,
      "BIT": 595,
      "Ġ3": 596,
      "Ġposition": 597,
      "Ġ<": 598,
      "****************": 599,
      "Ġat": 600,
      "Ġdata": 601,
      "MP": 602,
      "ET": 603,
      "icense": 604,
      "ENT": 605,
      "REG": 606,
      "ĠThis": 607,
      "];": 608,
      "ow": 609,
      "Options": 610,
      "ĠUS": 611,
      "SEL": 612,
      "Ġal": 613,
      "atus": 614,
      "nel": 615,
      "der": 616,
      "MO": 617,
      "ast": 618,
      "================================": 619,
      "Ġpro": 620,
      "SY": 621,
      "Ġregister": 622,
      "UP": 623,
      "ment": 624,
      "ART": 625,
      "Ġvoid": 626,
      "tribute": 627,
      "Ġinter": 628,
      "od": 629,
      "rom": 630,
      "const": 631,
      "low": 632,
      "cp": 633,
      "typedef": 634,
      "Ġit": 635,
      "VE": 636,
      "bit": 637,
      "In": 638,
      "Ġadd": 639,
      "val": 640,
      "CP": 641,
      "Ġthat": 642,
      "St": 643,
      "ATTR": 644,
      "pl": 645,
      "*/": 646,
      "AB": 647,
      "Pos": 648,
      "annel": 649,
      "ĠGPIO": 650,
      "FIG": 651,
      "Id": 652,
      "bu": 653,
      "Ġchar": 654,
      "ĠEn": 655,
      "ial": 656,
      "ommand": 657,
      "ifi": 658,
      "Ġdefault": 659,
      "Ġ4": 660,
      "te": 661,
      "ity": 662,
      "Ġex": 663,
      "ls": 664,
      "Type": 665,
      "yp": 666,
      "Ġ+": 667,
      "OUT": 668,
      "SL": 669,
      "ĠV": 670,
      "02": 671,
      "gth": 672,
      "ĠCON": 673,
      "ber": 674,
      "ash": 675,
      "YP": 676,
      "Ġ<<": 677,
      "ĠĠĠĠĠĠĠĠĠĠ": 678,
      "SC": 679,
      "000000": 680,
      "pr": 681,
      "bed": 682,
      "ĠčĊ": 683,
      "OL": 684,
      "ge": 685,
      "OT": 686,
      "ss": 687,
      "vice": 688,
      "read": 689,
      "Ġset": 690,
      "64": 691,
      "of": 692,
      "EX": 693,
      "DC": 694,
      "Ġcont": 695,
      "roup": 696,
      "bm": 697,
      "ITY": 698,
      "addr": 699,
      "ĠCon": 700,
      "ill": 701,
      "ĠTC": 702,
      "ry": 703,
      "rig": 704,
      "Ġout": 705,
      "AP": 706,
      "SFR": 707,
      "OP": 708,
      "ache": 709,
      "tls": 710,
      "ub": 711,
      "bp": 712,
      "PORT": 713,
      "data": 714,
      "sk": 715,
      "Ġzb": 716,
      "ive": 717,
      "USE": 718,
      "ccess": 719,
      "ster": 720,
      "Ġcall": 721,
      "gc": 722,
      "TH": 723,
      "Ġr": 724,
      "ain": 725,
      "ĠInter": 726,
      "CTR": 727,
      "Ġ|": 728,
      "15": 729,
      "umber": 730,
      "BU": 731,
      "imer": 732,
      "que": 733,
      "point": 734,
      "lic": 735,
      "size": 736,
      "opy": 737,
      "12": 738,
      "AG": 739,
      "IOM": 740,
      "MODE": 741,
      "CE": 742,
      "ust": 743,
      "ĠSe": 744,
      "line": 745,
      "STAT": 746,
      "ĠSt": 747,
      "UM": 748,
      "FL": 749,
      "amesp": 750,
      "get": 751,
      "back": 752,
      "ĠMBEDTLS": 753,
      "amespace": 754,
      "CN": 755,
      "iv": 756,
      "(__": 757,
      "RA": 758,
      "ated": 759,
      "Msk": 760,
      "act": 761,
      "ou": 762,
      "OW": 763,
      "rol": 764,
      "ptr": 765,
      "bedtls": 766,
      "Ġbuffer": 767,
      "10": 768,
      "sign": 769,
      "Ġfrom": 770,
      "pec": 771,
      "Ġare": 772,
      "VAL": 773,
      "Ġdefined": 774,
      "IL": 775,
      "BC": 776,
      "ĠSPI": 777,
      "ĠLicense": 778,
      "ide": 779,
      "ma": 780,
      "Ġtype": 781,
      "Ġkey": 782,
      "orm": 783,
      "ength": 784,
      "Ġmode": 785,
      "ens": 786,
      "LOC": 787,
      "TO": 788,
      "Ġas": 789,
      "scri": 790,
      "ino": 791,
      "rans": 792,
      "ener": 793,
      "ha": 794,
      "ific": 795,
      "ep": 796,
      "IM": 797,
      "ĠĠĠĠĠĠĠĠĠĠĠĠ": 798,
      "CTRL": 799,
      "Ġused": 800,
      "duino": 801,
      "num": 802,
      "io": 803,
      "ĠUSB": 804,
      "ename": 805,
      "Ġbitpos": 806,
      "ointer": 807,
      "Ġne": 808,
      "ire": 809,
      "uil": 810,
      "essage": 811,
      "KE": 812,
      "ypename": 813,
      "Ġper": 814,
      "andle": 815,
      "VER": 816,
      "FA": 817,
      "Ġ((": 818,
      "tr": 819,
      "Ġsh": 820,
      "Ġ5": 821,
      "our": 822,
      "ĠInterrupt": 823,
      "struct": 824,
      "Ġreser": 825,
      "Ġinput": 826,
      "ther": 827,
      "XX": 828,
      "MS": 829,
      "ĠĠĠĠĠĠĠĠĠĠĠĠĠĠĠ": 830,
      "error": 831,
      "ard": 832,
      "ware": 833,
      "Ġreserved": 834,
      "field": 835,
      "Ġwill": 836,
      "DMA": 837,
      "ION": 838,
      "ĠĠĠĠĠĠĠĠĠĠĠĠĠĠĠĠĠ": 839,
      "tern": 840,
      "UR": 841,
      "Mask": 842,
      "vel": 843,
      "Ġx": 844,
      "TYP": 845,
      "ĠĠĠĠĠĠĠĠĠĠĠĠĠ": 846,
      "SP": 847,
      "--------------------------------": 848,
      "ary": 849,
      "Ġaddress": 850,
      "right": 851,
      "ERROR": 852,
      "Ġenable": 853,
      "Ġstatic": 854,
      "signed": 855,
      "ĠSet": 856,
      "ĠAN": 857,
      "luster": 858,
      "ec": 859,
      "IS": 860,
      "TYPE": 861,
      "lement": 862,
      "ĠOR": 863,
      "Ġus": 864,
      "Ġ6": 865,
      "buf": 866,
      "EV": 867,
      "PD": 868,
      "ZE": 869,
      "ĠCONFIG": 870,
      "rite": 871,
      "ĠEnable": 872,
      "Data": 873,
      "CM": 874,
      "CLK": 875,
      "fer": 876,
      "HA": 877,
      "Ġend": 878,
      "uffers": 879,
      "Ġspec": 880,
      "ass": 881,
      "br": 882,
      "SER": 883,
      "HE": 884,
      "Ġ==": 885,
      "Ġval": 886,
      "use": 887,
      "ote": 888,
      "PIN": 889,
      "ĠRTC": 890,
      "her": 891,
      "Ġinterrupt": 892,
      "ULL": 893,
      "20": 894,
      "Ġconfig": 895,
      "Bitfield": 896,
      "MU": 897,
      "Ġoutput": 898,
      "Ġcomp": 899,
      "ring": 900,
      "11": 901,
      "ĠGet": 902,
      "tes": 903,
      "ĠEV": 904,
      "SYS": 905,
      "Ġnumber": 906,
      "ount": 907,
      "SET": 908,
      "ĠOF": 909,
      "IO": 910,
      "Ġy": 911,
      "Ġ/**<": 912,
      "ifdef": 913,
      "DAT": 914,
      "ACK": 915,
      "form": 916,
      "Ġoper": 917,
      "AM": 918,
      "SIZE": 919,
      "ost": 920,
      "(_": 921,
      "scription": 922,
      "Con": 923,
      "25": 924,
      "ull": 925,
      "Ġbool": 926,
      "Ġ!": 927,
      "ICE": 928,
      "Ġmbedtls": 929,
      "Ġcan": 930,
      "LOCK": 931,
      "CC": 932,
      "GLI": 933,
      "Ar": 934,
      "();": 935,
      "EM": 936,
      "ESH": 937,
      "Ġwhen": 938,
      "ĠADC": 939,
      "MAX": 940,
      "ory": 941,
      "trol": 942,
      "Ġle": 943,
      "buffers": 944,
      "static": 945,
      "UNC": 946,
      "ĠRegister": 947,
      "Ġ7": 948,
      "Ġmust": 949,
      "eg": 950,
      "atbuffers": 951,
      "zcl": 952,
      "TX": 953,
      "ret": 954,
      "oft": 955,
      "FO": 956,
      "ax": 957,
      "ail": 958,
      "ance": 959,
      "END": 960,
      "ual": 961,
      "WA": 962,
      "ĠĠĠĠĠĠĠĠĠĠĠĠĠĠĠĠĠĠĠĠĠĠĠĠĠĠĠĠĠĠĠĠĠĠĠĠĠĠĠĠĠĠĠĠĠĠĠĠĠĠĠĠĠĠĠĠĠĠĠĠĠĠĠĠ": 963,
      "03": 964,
      "ĠCh": 965,
      "fo": 966,
      "ĠIN": 967,
      "Ġerror": 968,
      "BA": 969,
      "Ġ8": 970,
      "sa": 971,
      "flatbuffers": 972,
      "Ġ`": 973,
      "ĠCH": 974,
      "ersion": 975,
      "Ġcommand": 976,
      "oul": 977,
      "CNT": 978,
      "EP": 979,
      "TION": 980,
      "istribut": 981,
      "BLE": 982,
      "FFFF": 983,
      "lect": 984,
      "ould": 985,
      "Ġ};": 986,
      "WIP": 987,
      "len": 988,
      "((": 989,
      "COR": 990,
      "Ġparam": 991,
      "else": 992,
      "urre": 993,
      "Ġtime": 994,
      "tin": 995,
      "WM": 996,
      "dex": 997,
      "<_": 998,
      "xf": 999,
      "COM": 1000,
      "Ġk": 1001,
      "FUNC": 1002,
      "ant": 1003,
      "Ġmem": 1004,
      "};": 1005,
      "pro": 1006,
      "ource": 1007,
      ").": 1008,
      "mode": 1009,
      "yst": 1010,
      "ence": 1011,
      "Iter": 1012,
      "ESS": 1013,
      "iss": 1014,
      "esh": 1015,
      "ave": 1016,
      "description": 1017,
      "GLIBC": 1018,
      "TER": 1019,
      "GLIBCXX": 1020,
      "Ġim": 1021,
      "uration": 1022,
      "lus": 1023,
      "ll": 1024,
      "EL": 1025,
      "ADDR": 1026,
      "ACH": 1027,
      "EST": 1028,
      "ĠĠĠĠĠĠĠĠĠĠĠĠĠĠ": 1029,
      "yn": 1030,
      "opyright": 1031,
      "expr": 1032,
      "rit": 1033,
      "ree": 1034,
      "LO": 1035,
      "Ġsuccess": 1036,
      "KEY": 1037,
      "ck": 1038,
      "empl": 1039,
      "Ġchannel": 1040,
      "SPI": 1041,
      "ABLE": 1042,
      "Ġ&&": 1043,
      "IG": 1044,
      "itial": 1045,
      "isable": 1046,
      "CT": 1047,
      "Ġfile": 1048,
      "Ġpointer": 1049,
      "app": 1050,
      "Re": 1051,
      "Ġar": 1052,
      "load": 1053,
      "CLR": 1054,
      "Ġapp": 1055,
      "RO": 1056,
      "emplate": 1057,
      "ĠFI": 1058,
      "led": 1059,
      "oftware": 1060,
      "RX": 1061,
      "ĠX": 1062,
      "ystem": 1063,
      "MBEDTLS": 1064,
      "Ġattribute": 1065,
      "urrent": 1066,
      "quest": 1067,
      "WI": 1068,
      "PU": 1069,
      "one": 1070,
      "OST": 1071,
      "irst": 1072,
      "Ġgroup": 1073,
      "ffset": 1074,
      "********************************": 1075,
      ">(": 1076,
      "ĠIf": 1077,
      "Ġconstexpr": 1078,
      "lag": 1079,
      "ind": 1080,
      "ission": 1081,
      "ndef": 1082,
      "ne": 1083,
      "ifier": 1084,
      "PER": 1085,
      "04": 1086,
      ")(": 1087,
      "cb": 1088,
      "lease": 1089,
      "Ġaut": 1090,
      "PO": 1091,
      "NUM": 1092,
      "ifndef": 1093,
      "Ġmay": 1094,
      "MESH": 1095,
      "ove": 1096,
      "ĠEVSYS": 1097,
      "14": 1098,
      "OK": 1099,
      "value": 1100,
      "13": 1101,
      "Ġread": 1102,
      "lib": 1103,
      "reg": 1104,
      "cond": 1105,
      "cplu": 1106,
      "splus": 1107,
      "cplusplus": 1108,
      "Ġ>": 1109,
      "Ġunsigned": 1110,
      "DATA": 1111,
      "Ġlist": 1112,
      "Ġenum": 1113,
      "ARG": 1114,
      "Ġstatus": 1115,
      "to": 1116,
      "08": 1117,
      "ify": 1118,
      "ĠĠĠĠĠĠĠĠĠĠĠĠĠĠĠĠĠĠĠ": 1119,
      "Ġevent": 1120,
      "lient": 1121,
      "cast": 1122,
      "pport": 1123,
      "CORE": 1124,
      ":[": 1125,
      "bitpos": 1126,
      "UE": 1127,
      "pack": 1128,
      "URE": 1129,
      "Ġinline": 1130,
      "ENA": 1131,
      "USB": 1132,
      "erator": 1133,
      "LIN": 1134,
      "ang": 1135,
      "ĠNULL": 1136,
      "Ġ///": 1137,
      "ages": 1138,
      "Ġ================================": 1139,
      "Loc": 1140,
      "Ġstd": 1141,
      "Ġlength": 1142,
      "Ġres": 1143,
      "extern": 1144,
      "ĠEvent": 1145,
      "En": 1146,
      "BASE": 1147,
      "Ġother": 1148,
      "Ġcode": 1149,
      "rypt": 1150,
      "rc": 1151,
      "ounter": 1152,
      "old": 1153,
      "Ġnamespace": 1154,
      "atch": 1155,
      "ich": 1156,
      "ENS": 1157,
      "ublic": 1158,
      "FOR": 1159,
      "ĠLWIP": 1160,
      "ded": 1161,
      "mesh": 1162,
      "ĠCHIP": 1163,
      "Ġunion": 1164,
      "LV": 1165,
      "Ġunder": 1166,
      "Ġdo": 1167,
      "ACHE": 1168,
      "ature": 1169,
      "nal": 1170,
      "time": 1171,
      "OF": 1172,
      "PSA": 1173,
      "ait": 1174,
      "wor": 1175,
      "ĠUn": 1176,
      "namespace": 1177,
      "ĠPORT": 1178,
      "ĠAt": 1179,
      "Ġfield": 1180,
      "text": 1181,
      "port": 1182,
      "Ġshould": 1183,
      "CO": 1184,
      "ight": 1185,
      "RES": 1186,
      "Ġ.": 1187,
      "ĠTHE": 1188,
      "Ġusing": 1189,
      "ref": 1190,
      "ADC": 1191,
      "CPWM": 1192,
      "bj": 1193,
      "Ġcal": 1194,
      "ab": 1195,
      "Ġ::": 1196,
      "ATION": 1197,
      "VALID": 1198,
      "ensor": 1199,
      "ĠComp": 1200,
      "ler": 1201,
      "Ġonly": 1202,
      "CMD": 1203,
      "config": 1204,
      "Tp": 1205,
      "cept": 1206,
      "ms": 1207,
      "Ġbytes": 1208,
      "Ġstate": 1209,
      "App": 1210,
      "Ġcallback": 1211,
      "ITH": 1212,
      "Ġi": 1213,
      "Ġtypename": 1214,
      "Ġcase": 1215,
      "Ġwhich": 1216,
      "CONFIG": 1217,
      "ong": 1218,
      "ere": 1219,
      "mp": 1220,
      "aw": 1221,
      "CLU": 1222,
      "CHAN": 1223,
      "Ġsign": 1224,
      "pd": 1225,
      "Arduino": 1226,
      "reate": 1227,
      "GEN": 1228,
      "Ġ)": 1229,
      "TE": 1230,
      "NC": 1231,
      "Local": 1232,
      "ĠĠĠĠĠĠĠĠĠĠĠĠĠĠĠĠĠĠĠĠĠ": 1233,
      "ALL": 1234,
      "heck": 1235,
      "ĠFILE": 1236,
      "Ġdevice": 1237,
      "Ġmessage": 1238,
      "Ġnet": 1239,
      "PL": 1240,
      "inter": 1241,
      "ibr": 1242,
      "FUSE": 1243,
      "ECT": 1244,
      "STR": 1245,
      "ULT": 1246,
      "Ġinst": 1247,
      "ĠANY": 1248,
      "og": 1249,
      ":\\": 1250,
      "MT": 1251,
      "Ġ16": 1252,
      "Ġimp": 1253,
      "dc": 1254,
      "RAN": 1255,
      "Ġfa": 1256,
      "Ġ================================================": 1257,
      "sed": 1258,
      "code": 1259,
      "net": 1260,
      "md": 1261,
      "flite": 1262,
      "sers": 1263,
      "Ġtrans": 1264,
      "SK": 1265,
      "SU": 1266,
      "head": 1267,
      "));": 1268,
      "Ġoperation": 1269,
      "GPIO": 1270,
      "SUP": 1271,
      "GE": 1272,
      "09": 1273,
      "note": 1274,
      "vect": 1275,
      "ink": 1276,
      "ipher": 1277,
      "ĠControl": 1278,
      "Buffer": 1279,
      "NO": 1280,
      "est": 1281,
      "Ġyou": 1282,
      "ĠMode": 1283,
      "ĠĠĠĠĠĠĠĠĠĠĠĠĠĠĠĠĠĠ": 1284,
      "Ġhas": 1285,
      "ĠĠĠĠĠĠĠĠĠĠĠĠĠĠĠĠĠĠĠĠĠĠĠĠĠ": 1286,
      "Users": 1287,
      "Mode": 1288,
      "AppData": 1289,
      "asus": 1290,
      "DT": 1291,
      "INVALID": 1292,
      "Ġrece": 1293,
      "uiltin": 1294,
      "hal": 1295,
      "hash": 1296,
      "Iterator": 1297,
      "Ġser": 1298,
      "std": 1299,
      "Ġprov": 1300,
      "CB": 1301,
      "SERT": 1302,
      "Ġendpoint": 1303,
      "Ġmemory": 1304,
      "Ġcontext": 1305,
      "lat": 1306,
      "Ke": 1307,
      "lection": 1308,
      "TIME": 1309,
      "Ġchip": 1310,
      "igh": 1311,
      "Ġstart": 1312,
      "TIM": 1313,
      "QU": 1314,
      "lear": 1315,
      "Ġno": 1316,
      "ector": 1317,
      "dule": 1318,
      "ak": 1319,
      "bb": 1320,
      "07": 1321,
      "////": 1322,
      "ĠDef": 1323,
      "ASSERT": 1324,
      "ized": 1325,
      "BLOCK": 1326,
      "gp": 1327,
      "ĠĠĠĠĠĠĠĠĠĠĠĠĠĠĠĠĠĠĠĠĠĠĠĠĠĠĠ": 1328,
      "arduino": 1329,
      "Ġ||": 1330,
      "MAN": 1331,
      "24": 1332,
      "ĠĠĠĠĠĠĠĠĠĠĠĠĠĠĠĠĠĠĠĠ": 1333,
      "FG": 1334,
      "PRICE": 1335,
      "Ġwrit": 1336,
      "ĠMCPWM": 1337,
      "ived": 1338,
      "onse": 1339,
      "Ġparamet": 1340,
      "BL": 1341,
      "MUX": 1342,
      "tributes": 1343,
      "Ġcl": 1344,
      "Ġsp": 1345,
      "alse": 1346,
      "ange": 1347,
      "OV": 1348,
      "ools": 1349,
      "SUPPORT": 1350,
      "sha": 1351,
      "amp": 1352,
      "##": 1353,
      "ACE": 1354,
      "name": 1355,
      "typename": 1356,
      "FIFO": 1357,
      "19": 1358,
      "EG": 1359,
      "STATUS": 1360,
      "ĠChannel": 1361,
      "ous": 1362,
      "ĠUN": 1363,
      "packages": 1364,
      "31": 1365,
      "status": 1366,
      "Ġtemplate": 1367,
      "face": 1368,
      "Ġinitial": 1369,
      "28": 1370,
      "EE": 1371,
      "riv": 1372,
      "EDC": 1373,
      "ee": 1374,
      "IV": 1375,
      "tools": 1376,
      "ĠĠĠĠĠĠĠĠĠĠĠĠĠĠĠĠĠĠĠĠĠĠĠ": 1377,
      "allback": 1378,
      "Ġsc": 1379,
      "mit": 1380,
      "READ": 1381,
      "STEM": 1382,
      "Ġhandle": 1383,
      "ĠType": 1384,
      "LEN": 1385,
      "Un": 1386,
      "ally": 1387,
      "mission": 1388,
      "ning": 1389,
      "ĠĠĠĠĠĠĠĠĠĠĠĠĠĠĠĠĠĠĠĠĠĠĠĠĠĠ": 1390,
      "ĠĠĠĠĠĠĠĠĠĠĠĠĠĠĠĠĠĠĠĠĠĠĠĠĠĠĠĠĠĠĠĠĠĠĠĠĠĠĠ": 1391,
      "uilder": 1392,
      "ĠDMA": 1393,
      "rior": 1394,
      "GP": 1395,
      "dic": 1396,
      "Ġall": 1397,
      "tp": 1398,
      "ĠInput": 1399,
      "WR": 1400,
      "LINE": 1401,
      "Ġact": 1402,
      "Ġspecific": 1403,
      "Ġ========================================================": 1404,
      "Ġapplic": 1405,
      "ise": 1406,
      "dent": 1407,
      "ron": 1408,
      "ĠUSART": 1409,
      "ument": 1410,
      "00000001": 1411,
      "Ġblock": 1412,
      "OptionsT": 1413,
      "list": 1414,
      "ted": 1415,
      "Ġ(*": 1416,
      "PA": 1417,
      "ower": 1418,
      "Key": 1419,
      "Ġdistribut": 1420,
      "80": 1421,
      "ĠDe": 1422,
      "Ġab": 1423,
      "ILITY": 1424,
      "PMS": 1425,
      "FS": 1426,
      "ONE": 1427,
      "Ġauto": 1428,
      "ĠĠĠĠĠĠĠĠĠĠĠĠĠĠĠĠĠĠĠĠĠĠĠĠĠĠĠĠĠĠĠĠĠĠĠĠĠĠĠĠ": 1429,
      "ĠUNITY": 1430,
      "init": 1431,
      "Ġcalled": 1432,
      "ww": 1433,
      "ake": 1434,
      "Ġsupport": 1435,
      "nect": 1436,
      "OD": 1437,
      "ollow": 1438,
      "rue": 1439,
      "ray": 1440,
      "FAULT": 1441,
      "Ġ(__": 1442,
      "evel": 1443,
      "toc": 1444,
      "CD": 1445,
      "itions": 1446,
      "Ġfollow": 1447,
      "Ch": 1448,
      "ful": 1449,
      "Ġdefine": 1450,
      "bt": 1451,
      "acket": 1452,
      "buffer": 1453,
      "To": 1454,
      "inline": 1455,
      "SIG": 1456,
      "DEV": 1457,
      "action": 1458,
      "quire": 1459,
      "Pro": 1460,
      "dpoint": 1461,
      "ĠBit": 1462,
      "BUG": 1463,
      "Ġpre": 1464,
      "Ġany": 1465,
      "valid": 1466,
      "ĠPro": 1467,
      "Ġbits": 1468,
      "file": 1469,
      "ĠGener": 1470,
      "ĠIS": 1471,
      "Ġtimer": 1472,
      "ĠEx": 1473,
      "'s": 1474,
      "ITE": 1475,
      "Ġsoftware": 1476,
      "000": 1477,
      "BUF": 1478,
      "ath": 1479,
      "own": 1480,
      "ĠID": 1481,
      "work": 1482,
      "dev": 1483,
      "ENABLE": 1484,
      "start": 1485,
      "DB": 1486,
      "IF": 1487,
      "xB": 1488,
      "ĠAdd": 1489,
      "Ġ32": 1490,
      "ting": 1491,
      "tx": 1492,
      "256": 1493,
      "ert": 1494,
      "min": 1495,
      "ger": 1496,
      "ates": 1497,
      "TIER": 1498,
      "loat": 1499,
      "Ġreg": 1500,
      "LVL": 1501,
      "imit": 1502,
      "STER": 1503,
      "xff": 1504,
      "release": 1505,
      "ĠWAR": 1506,
      "CS": 1507,
      "SION": 1508,
      "Ġcluster": 1509,
      "ĉĠ": 1510,
      "irt": 1511,
      "06": 1512,
      "Ġgener": 1513,
      "Ġcurrent": 1514,
      "ACT": 1515,
      "yte": 1516,
      "Ġhave": 1517,
      "At": 1518,
      "Ġprovide": 1519,
      "METER": 1520,
      "gr": 1521,
      "chron": 1522,
      "ations": 1523,
      "SSL": 1524,
      "DEBUG": 1525,
      "ĠPSA": 1526,
      "ari": 1527,
      "18": 1528,
      "ound": 1529,
      "ach": 1530,
      "Ġ%": 1531,
      "ock": 1532,
      "rr": 1533,
      "ident": 1534,
      "Value": 1535,
      "Ġsend": 1536,
      "ĠSPD": 1537,
      "Ġfalse": 1538,
      "START": 1539,
      "iod": 1540,
      "xC": 1541,
      "ibrary": 1542,
      "IND": 1543,
      "IR": 1544,
      "bject": 1545,
      "enc": 1546,
      "License": 1547,
      "SYSTEM": 1548,
      "ĠWARRAN": 1549,
      "imum": 1550,
      "ĠSelection": 1551,
      "ĠSPDX": 1552,
      "ĠZ": 1553,
      "lash": 1554,
      "DES": 1555,
      "ĠAC": 1556,
      "IB": 1557,
      "ĠĠĠĠĠĠĠĠĠĠĠĠĠĠĠĠĠĠĠĠĠĠ": 1558,
      "ĉĉĉĉ": 1559,
      "acro": 1560,
      "first": 1561,
      "mem": 1562,
      "Ġone": 1563,
      "ision": 1564,
      "ĠSystem": 1565,
      "Ġmax": 1566,
      "Ġrequest": 1567,
      "req": 1568,
      "LS": 1569,
      "resent": 1570,
      "ues": 1571,
      "ĠNV": 1572,
      "ĠData": 1573,
      "De": 1574,
      "PRE": 1575,
      "ord": 1576,
      "Ġsource": 1577,
      "ĠBLE": 1578,
      "tocol": 1579,
      "rec": 1580,
      "86": 1581,
      "Ġfollowing": 1582,
      "resp": 1583,
      "ĠINT": 1584,
      "ĠLEDC": 1585,
      "ilter": 1586,
      "ATE": 1587,
      "ressif": 1588,
      "ĠSOC": 1589,
      "ynchron": 1590,
      "cess": 1591,
      "ix": 1592,
      "alloc": 1593,
      "HT": 1594,
      "ĠĠĠĠĠĠĠĠĠĠĠĠĠĠĠĠĠĠĠĠĠĠĠĠĠĠĠĠĠ": 1595,
      "Ġ///<": 1596,
      "MAC": 1597,
      "FAIL": 1598,
      "Ġpart": 1599,
      "Ġversion": 1600,
      "Ġlevel": 1601,
      "ĠIP": 1602,
      "river": 1603,
      "ptor": 1604,
      "pect": 1605,
      "enum": 1606,
      "Ġconfiguration": 1607,
      "MASK": 1608,
      "ĠUART": 1609,
      "libs": 1610,
      "ream": 1611,
      "TEST": 1612,
      "RST": 1613,
      "ĠCompare": 1614,
      "Ġclock": 1615,
      "METERING": 1616,
      "utput": 1617,
      "NEL": 1618,
      "21": 1619,
      "comp": 1620,
      "RTC": 1621,
      "RAW": 1622,
      "Ġwithout": 1623,
      "\");": 1624,
      "List": 1625,
      "Ġcond": 1626,
      "oot": 1627,
      "CUR": 1628,
      "riority": 1629,
      "WOR": 1630,
      "cle": 1631,
      "hold": 1632,
      "lete": 1633,
      "Ġnull": 1634,
      "ĠBuiltin": 1635,
      "CNTL": 1636,
      "ick": 1637,
      "\",": 1638,
      "Ġarg": 1639,
      "retval": 1640,
      "map": 1641,
      "Ġform": 1642,
      "SRV": 1643,
      "ASH": 1644,
      "Ġlo": 1645,
      "ĠEX": 1646,
      "RC": 1647,
      "EXT": 1648,
      "idf": 1649,
      "ĠAp": 1650,
      "ified": 1651,
      "over": 1652,
      "ĠCopyright": 1653,
      "rror": 1654,
      "ys": 1655,
      "Ġcopy": 1656,
      "empt": 1657,
      "LP": 1658,
      "TIMER": 1659,
      "ĠĠĠĠĠĠĠĠĠĠĠĠĠĠĠĠĠĠĠĠĠĠĠĠĠĠĠĠĠĠĠĠĠĠĠĠĠĠĠĠĠ": 1660,
      "STATE": 1661,
      "uf": 1662,
      "ĠApache": 1663,
      "05": 1664,
      "Ġalloc": 1665,
      "DP": 1666,
      "IVE": 1667,
      "Ġdis": 1668,
      "Ġtflite": 1669,
      "ĠAPI": 1670,
      "17": 1671,
      "ward": 1672,
      "ultip": 1673,
      "hed": 1674,
      "mbedtls": 1675,
      "ĠSer": 1676,
      "30": 1677,
      "TD": 1678,
      "Ġvol": 1679,
      "ither": 1680,
      "bool": 1681,
      "ycle": 1682,
      "sert": 1683,
      "DO": 1684,
      "odule": 1685,
      "SHA": 1686,
      "Ġsub": 1687,
      "ĠRMT": 1688,
      "ĠTWI": 1689,
      "Ġneed": 1690,
      "input": 1691,
      "atile": 1692,
      "Ġelse": 1693,
      "ater": 1694,
      "Ġstring": 1695,
      "fter": 1696,
      "ĠRO": 1697,
      "Ġtask": 1698,
      "Ġresult": 1699,
      "ĠEFUSE": 1700,
      "TS": 1701,
      "ference": 1702,
      "fbb": 1703,
      "EVENT": 1704,
      "ayload": 1705,
      "attribute": 1706,
      "ĠĠĠĠĠĠĠĠĠĠĠĠĠĠĠĠĠĠĠĠĠĠĠĠĠĠĠĠ": 1707,
      "ssl": 1708,
      "andler": 1709,
      "ause": 1710,
      "Ġ!=": 1711,
      "CAL": 1712,
      "Ġwrite": 1713,
      "Status": 1714,
      "Al": 1715,
      "RD": 1716,
      "Ġ'": 1717,
      "ions": 1718,
      "Ġimplement": 1719,
      "++": 1720,
      "ten": 1721,
      "info": 1722,
      "Ġcontrol": 1723,
      "xF": 1724,
      "TIES": 1725,
      "AY": 1726,
      "utex": 1727,
      "sters": 1728,
      "DEFAULT": 1729,
      "23": 1730,
      "xD": 1731,
      "Ġpsa": 1732,
      "DING": 1733,
      "Ġent": 1734,
      "PUT": 1735,
      "ABILITY": 1736,
      "Ġident": 1737,
      "Ġget": 1738,
      "CMP": 1739,
      "Ġselect": 1740,
      "ĠCommand": 1741,
      "Ġover": 1742,
      "ample": 1743,
      "UCH": 1744,
      "AGE": 1745,
      "SH": 1746,
      "ĠWARRANTIES": 1747,
      "Info": 1748,
      "xE": 1749,
      "iled": 1750,
      "Ġstructure": 1751,
      "Ġrequire": 1752,
      "Builder": 1753,
      "Ġtrue": 1754,
      "Model": 1755,
      "Offset": 1756,
      "gor": 1757,
      "Ġnew": 1758,
      "WITH": 1759,
      "Ġname": 1760,
      "ĠPort": 1761,
      "Ġelement": 1762,
      "mask": 1763,
      "vert": 1764,
      "VALUE": 1765,
      "range": 1766,
      "HAVE": 1767,
      "rigger": 1768,
      "context": 1769,
      "gorith": 1770,
      "Ġbut": 1771,
      "eas": 1772,
      "ĠMask": 1773,
      "GET": 1774,
      "Ġro": 1775,
      "function": 1776,
      "Ġport": 1777,
      "ĠPer": 1778,
      "wip": 1779,
      "CI": 1780,
      "wise": 1781,
      "MAP": 1782,
      "Ġpacket": 1783,
      "ĠLevel": 1784,
      "Ġpermission": 1785,
      "ynchronous": 1786,
      "MD": 1787,
      "event": 1788,
      "Ġ201": 1789,
      "128": 1790,
      "ĠFor": 1791,
      "26": 1792,
      "Ġclass": 1793,
      "Ġhead": 1794,
      "Ġpin": 1795,
      "Ġpoint": 1796,
      "PAD": 1797,
      "bug": 1798,
      "nection": 1799,
      "src": 1800,
      "lusters": 1801,
      "fg": 1802,
      "reshold": 1803,
      "DS": 1804,
      "Ġwas": 1805,
      "ĠLP": 1806,
      "state": 1807,
      "lusterId": 1808,
      "(\"": 1809,
      "ĠConfig": 1810,
      "...": 1811,
      "ish": 1812,
      "cur": 1813,
      "odable": 1814,
      "22": 1815,
      "MIN": 1816,
      "crypt": 1817,
      "INV": 1818,
      "LL": 1819,
      "ĠAttribute": 1820,
      "group": 1821,
      "(),": 1822,
      "MENT": 1823,
      "ĠTime": 1824,
      "Ġ(@": 1825,
      "Ġdistributed": 1826,
      "ĠFlag": 1827,
      "dr": 1828,
      "lay": 1829,
      "40": 1830,
      "qual": 1831,
      "PACK": 1832,
      "ecodable": 1833,
      "ĠAND": 1834,
      "iterator": 1835,
      "ĠPointer": 1836,
      "Ġwe": 1837,
      "SLC": 1838,
      "flow": 1839,
      "enable": 1840,
      "Ġpublic": 1841,
      "PP": 1842,
      "ĠGDMA": 1843,
      "handle": 1844,
      "Ġmasks": 1845,
      "rame": 1846,
      "Ġexp": 1847,
      "cluster": 1848,
      "SD": 1849,
      "REQ": 1850,
      "ification": 1851,
      "Ġmod": 1852,
      "ok": 1853,
      "rehash": 1854,
      "CONST": 1855,
      "max": 1856,
      "48": 1857,
      "Ġpositions": 1858,
      "comm": 1859,
      "Ġcontain": 1860,
      "Ġdisable": 1861,
      "ĠNVM": 1862,
      "PAR": 1863,
      "ĠTimer": 1864,
      "Ġfunctions": 1865,
      "inary": 1866,
      "sh": 1867,
      "char": 1868,
      "OLD": 1869,
      "IAL": 1870,
      "Ġlen": 1871,
      "ĠRet": 1872,
      "ĠSENS": 1873,
      "tc": 1874,
      "xb": 1875,
      "Ġflag": 1876,
      "ĠCL": 1877,
      "formation": 1878,
      "ctx": 1879,
      "DEVICE": 1880,
      "hread": 1881,
      "ĠOn": 1882,
      "ĠSelect": 1883,
      "xA": 1884,
      "DIO": 1885,
      "str": 1886,
      "par": 1887,
      "ĉĉĉ": 1888,
      "BT": 1889,
      "FLAG": 1890,
      "ead": 1891,
      "ĠPre": 1892,
      "SS": 1893,
      "rehasher": 1894,
      "gm": 1895,
      "ĠĠĠĠĠĠĠĠĠĠĠĠĠĠĠĠĠĠĠĠĠĠĠĠĠĠĠĠĠĠĠĠĠĠĠĠĠ": 1896,
      "HER": 1897,
      "fL": 1898,
      "ĠPR": 1899,
      "way": 1900,
      "Ġ?": 1901,
      "FORCE": 1902,
      "Ġsuccessful": 1903,
      "TROL": 1904,
      "cal": 1905,
      "ypes": 1906,
      "TP": 1907,
      "Ġenabled": 1908,
      "Ġprovided": 1909,
      "apt": 1910,
      ")->": 1911,
      "Ġ10": 1912,
      "EMP": 1913,
      "base": 1914,
      "RAM": 1915,
      "EVT": 1916,
      "easure": 1917,
      "xd": 1918,
      "Ġht": 1919,
      "Ġ/": 1920,
      "length": 1921,
      "egin": 1922,
      "SW": 1923,
      "Ex": 1924,
      "Ġip": 1925,
      "Ġlibrary": 1926,
      "indow": 1927,
      "write": 1928,
      "Ġlong": 1929,
      "Ġdst": 1930,
      "channel": 1931,
      "AME": 1932,
      "UCT": 1933,
      "rivate": 1934,
      "Sh": 1935,
      "ĠPin": 1936,
      "ĠTrans": 1937,
      "cmd": 1938,
      "SEC": 1939,
      "ome": 1940,
      "fLite": 1941,
      "Ġmet": 1942,
      "OFF": 1943,
      "leep": 1944,
      "VEL": 1945,
      "SAR": 1946,
      "MODEL": 1947,
      "gorithm": 1948,
      "Ġafter": 1949,
      "arget": 1950,
      "USER": 1951,
      "ĠCPU": 1952,
      "Set": 1953,
      "Ġ(_": 1954,
      "38": 1955,
      "pen": 1956,
      "DIV": 1957,
      "OFT": 1958,
      "pected": 1959,
      "shape": 1960,
      "CONTROL": 1961,
      "HOST": 1962,
      "Ġ*_": 1963,
      "Command": 1964,
      "Ġtypedef": 1965,
      "Ġext": 1966,
      "Ġad": 1967,
      "ĠClock": 1968,
      "ĠSD": 1969,
      "last": 1970,
      "SOC": 1971,
      "NOT": 1972,
      "LEVEL": 1973,
      "Ġnullptr": 1974,
      "ĠLI": 1975,
      "ITIVE": 1976,
      "ĠUser": 1977,
      "ization": 1978,
      "ĠSee": 1979,
      "by": 1980,
      "ĠOutput": 1981,
      "ECK": 1982,
      "output": 1983,
      "Ġeither": 1984,
      "WARE": 1985,
      "29": 1986,
      "ĠĠĠĠĠĠĠĠĠĠĠĠĠĠĠĠĠĠĠĠĠĠĠĠĠĠĠĠĠĠĠ": 1987,
      "ilu": 1988,
      "68": 1989,
      "unsigned": 1990,
      "OVF": 1991,
      "ĠBuiltinOptions": 1992,
      "Inter": 1993,
      "cfg": 1994,
      "ĠPosition": 1995,
      "CHAL": 1996,
      "Ident": 1997,
      "Ġvolatile": 1998,
      "Ġresp": 1999,
      "ose": 2000,
      "Ġrem": 2001,
      "present": 2002,
      "Ġid": 2003,
      "andom": 2004,
      "Ġinto": 2005,
      "ĠReturn": 2006,
      "vail": 2007,
      "netif": 2008,
      "irtual": 2009,
      "clk": 2010,
      "VR": 2011,
      "Ġreceived": 2012,
      "ASY": 2013,
      "Ġcheck": 2014,
      "BUS": 2015,
      "Ġbeen": 2016,
      "fore": 2017,
      "cre": 2018,
      "MST": 2019,
      "sl": 2020,
      "Ġvalues": 2021,
      "Ġstore": 2022,
      "INTR": 2023,
      "agma": 2024,
      "Get": 2025,
      "string": 2026,
      "Endpoint": 2027,
      "Ġ9": 2028,
      "queue": 2029,
      "Ġrequired": 2030,
      "CURR": 2031,
      "ipheral": 2032,
      "Ġz": 2033,
      "count": 2034,
      "print": 2035,
      "INTLVL": 2036,
      "local": 2037,
      "lied": 2038,
      "ĠRed": 2039,
      "PRO": 2040,
      "LY": 2041,
      "Ġfirst": 2042,
      "ĠĠĠĠĠĠĠĠĠĠĠĠĠĠĠĠĠĠĠĠĠĠĠĠĠĠĠĠĠĠĠĠĠĠĠĠĠĠ": 2043,
      "Ġbt": 2044,
      "xx": 2045,
      "INTER": 2046,
      "().": 2047,
      "ĠAP": 2048,
      "INIT": 2049,
      "ĠY": 2050,
      "<<(": 2051,
      "Ġsignal": 2052,
      "ĠPMU": 2053,
      "ĠPRO": 2054,
      "see": 2055,
      "Ġbefore": 2056,
      "Task": 2057,
      "ero": 2058,
      "44": 2059,
      "irect": 2060,
      "resol": 2061,
      "attr": 2062,
      "SYNC": 2063,
      "Ġbyte": 2064,
      "Ġgp": 2065,
      "ative": 2066,
      "'t": 2067,
      "PRES": 2068,
      "Add": 2069,
      "Ġspi": 2070,
      "conf": 2071,
      "olor": 2072,
      "Ġapplication": 2073,
      "Ġ>=": 2074,
      "Ġoff": 2075,
      "Ġconditions": 2076,
      "Ġindex": 2077,
      "STRUCT": 2078,
      "UNITY": 2079,
      "ardware": 2080,
      "ĠK": 2081,
      "Ġmacro": 2082,
      "ĠIt": 2083,
      "ERV": 2084,
      "ĠAD": 2085,
      "VECT": 2086,
      "CRYP": 2087,
      "ĠStatus": 2088,
      "ĠRes": 2089,
      "Ġinstance": 2090,
      "ctr": 2091,
      "Ġabove": 2092,
      "ilure": 2093,
      "vailable": 2094,
      ")<<(": 2095,
      ".*/": 2096,
      "si": 2097,
      "aits": 2098,
      "Ġag": 2099,
      "ĠTCA": 2100,
      "apture": 2101,
      "TAG": 2102,
      "Ġvalid": 2103,
      "ĠTO": 2104,
      "://": 2105,
      "Ġoperator": 2106,
      "Ġindic": 2107,
      "CHECK": 2108,
      "ared": 2109,
      "ical": 2110,
      "ASYNC": 2111,
      "Ġonce": 2112,
      "APP": 2113,
      "ERRUP": 2114,
      "TIC": 2115,
      "ĉĠĠĠ": 2116,
      "LD": 2117,
      "ĠEsp": 2118,
      "CLI": 2119,
      "BUFF": 2120,
      "/*!": 2121,
      "Ġinclude": 2122,
      "MON": 2123,
      "ĠRead": 2124,
      "pragma": 2125,
      "Ġinterface": 2126,
      "Ġpr": 2127,
      "message": 2128,
      "Ġup": 2129,
      "CLUDING": 2130,
      "ĠAs": 2131,
      "empty": 2132,
      "ĠCLK": 2133,
      "ride": 2134,
      "Int": 2135,
      "Vector": 2136,
      "ding": 2137,
      "Ġdoes": 2138,
      "27": 2139,
      "LOG": 2140,
      "spi": 2141,
      "IFI": 2142,
      "ĠSoftware": 2143,
      "VI": 2144,
      "ASK": 2145,
      "ync": 2146,
      "CURRENT": 2147,
      "HY": 2148,
      "Ġparameter": 2149,
      "SSI": 2150,
      "98": 2151,
      "Ġass": 2152,
      "ariable": 2153,
      "CHANNEL": 2154,
      "anag": 2155,
      "Ġret": 2156,
      "Ġso": 2157,
      "VECTOR": 2158,
      "BY": 2159,
      "not": 2160,
      "Ġhttp": 2161,
      "scriptor": 2162,
      "Attribute": 2163,
      "ĠFOR": 2164,
      "----------------------------------------------------------------": 2165,
      "REF": 2166,
      "pdate": 2167,
      "CAN": 2168,
      "idth": 2169,
      "Char": 2170,
      "FLASH": 2171,
      "ecut": 2172,
      "for": 2173,
      "offset": 2174,
      "THR": 2175,
      "Ġinitialized": 2176,
      "PROT": 2177,
      "xFFFF": 2178,
      "fs": 2179,
      "BUFFER": 2180,
      "Ġcycle": 2181,
      "OFTWARE": 2182,
      "Alloc": 2183,
      "Ġfailed": 2184,
      "ĠSystems": 2185,
      "ating": 2186,
      "ALG": 2187,
      "ud": 2188,
      "Ġlow": 2189,
      "ĠEspressif": 2190,
      "Ġet": 2191,
      "template": 2192,
      ">::": 2193,
      "ĠFUSE": 2194,
      "LED": 2195,
      "Ġuser": 2196,
      "requ": 2197,
      "ways": 2198,
      "hs": 2199,
      "Ġclient": 2200,
      "Ġptr": 2201,
      "quence": 2202,
      "THER": 2203,
      "Ġobject": 2204,
      "ility": 2205,
      "resolver": 2206,
      "Ġthen": 2207,
      "ĠSY": 2208,
      "ĠNOT": 2209,
      "org": 2210,
      "Ġcache": 2211,
      "Ġthan": 2212,
      "ĠĠĠĠĠĠĠĠĠĠĠĠĠĠĠĠĠĠĠĠĠĠĠĠĠĠĠĠĠĠ": 2213,
      "ecodableType": 2214,
      "Ġnon": 2215,
      "NS": 2216,
      "su": 2217,
      "ransp": 2218,
      "DF": 2219,
      "LIST": 2220,
      "Identifier": 2221,
      "chip": 2222,
      "ĠStart": 2223,
      "ĠĠĠĠĠĠĠĠĠĠĠĠĠĠĠĠĠĠĠĠĠĠĠĠĠĠĠĠĠĠĠĠĠĠĠĠĠĠĠĠĠĠĠ": 2224,
      "ĠĠĠĠĠĠĠĠĠĠĠĠĠĠĠĠĠĠĠĠĠĠĠĠĠĠĠĠĠĠĠĠĠĠĠĠĠĠĠĠĠĠ": 2225,
      "SO": 2226,
      "Ġdef": 2227,
      "Ġhw": 2228,
      "Table": 2229,
      "the": 2230,
      "Ġnum": 2231,
      "__)": 2232,
      "ĠByte": 2233,
      "Ġmore": 2234,
      "Ġsame": 2235,
      "Ġheader": 2236,
      "stance": 2237,
      "less": 2238,
      "mm": 2239,
      "Ġparameters": 2240,
      "////////": 2241,
      "TLV": 2242,
      "uth": 2243,
      "HP": 2244,
      "ĠPOR": 2245,
      "connect": 2246,
      "For": 2247,
      "client": 2248,
      "****************************************************************": 2249,
      "Time": 2250,
      "ĠSOFTWARE": 2251,
      "File": 2252,
      "ĠOT": 2253,
      "CACHE": 2254,
      "SUM": 2255,
      "TASK": 2256,
      "Ġgpio": 2257,
      "ĠCO": 2258,
      "COMP": 2259,
      "Ġinformation": 2260,
      "Ġinternal": 2261,
      "Ġargument": 2262,
      "ĠSu": 2263,
      "Ġactual": 2264,
      "Ser": 2265,
      "LC": 2266,
      "SM": 2267,
      "ĠRedistribut": 2268,
      "Index": 2269,
      "tail": 2270,
      "Ġgiv": 2271,
      "CPU": 2272,
      "NAL": 2273,
      "esc": 2274,
      "Ġaddr": 2275,
      "509": 2276,
      "Ġ*)": 2277,
      "hen": 2278,
      "ĠAddress": 2279,
      "._": 2280,
      "ĠSCB": 2281,
      "erify": 2282,
      "ASS": 2283,
      "Ġdriver": 2284,
      "begin": 2285,
      "Ġformat": 2286,
      "link": 2287,
      "ĠValue": 2288,
      "ĠPredefined": 2289,
      "ĠCreate": 2290,
      "GPT": 2291,
      "Ġlimit": 2292,
      "Fi": 2293,
      "pan": 2294,
      "soc": 2295,
      "gisters": 2296,
      "__,": 2297,
      "EndpointId": 2298,
      "Ġline": 2299,
      "ĠDefault": 2300,
      "hai": 2301,
      "block": 2302,
      "anghai": 2303,
      "esponse": 2304,
      "WDT": 2305,
      "Ġallow": 2306,
      "Shanghai": 2307,
      "Ġfloat": 2308,
      "202": 2309,
      "mac": 2310,
      "lob": 2311,
      "arg": 2312,
      "air": 2313,
      "ĠLTD": 2314,
      "Ġbinary": 2315,
      "aramet": 2316,
      "Ġflash": 2317,
      "SPL": 2318,
      "Ġinvalid": 2319,
      "desc": 2320,
      "result": 2321,
      "----------": 2322,
      "ETM": 2323,
      "Ġwhile": 2324,
      "Ġarray": 2325,
      "dcd": 2326,
      "ĠFree": 2327,
      "ĠAn": 2328,
      "NU": 2329,
      "atter": 2330,
      "Ġstack": 2331,
      "Ġobt": 2332,
      "BR": 2333,
      "pcb": 2334,
      "MC": 2335,
      "reak": 2336,
      "DONE": 2337,
      "run": 2338,
      "itch": 2339,
      "ĠWITH": 2340,
      "ĠSource": 2341,
      "Ġaccess": 2342,
      "ĠAll": 2343,
      "Ġserver": 2344,
      "Ġ202": 2345,
      "ivation": 2346,
      "arm": 2347,
      "FE": 2348,
      "Ġspecified": 2349,
      "EQU": 2350,
      "UINT": 2351,
      "class": 2352,
      "wm": 2353,
      "dma": 2354,
      "Ġgiven": 2355,
      "ies": 2356,
      "Ġresponse": 2357,
      "ĠDisable": 2358,
      "SRC": 2359,
      "Ġrange": 2360,
      "ĠXCHAL": 2361,
      "Ġnotice": 2362,
      "aph": 2363,
      "ayer": 2364,
      "OPY": 2365,
      "no": 2366,
      "timer": 2367,
      "ĠDefine": 2368,
      "ĠPIN": 2369,
      "pre": 2370,
      "Ġreset": 2371,
      "IMER": 2372,
      "Ġcopyright": 2373,
      "ib": 2374,
      "Ġrepresent": 2375,
      "ORY": 2376,
      "ĠDA": 2377,
      "sd": 2378,
      "Ġcomm": 2379,
      "BO": 2380,
      "undef": 2381,
      "Ġbase": 2382,
      "VERSION": 2383,
      "Ġwriting": 2384,
      "ITION": 2385,
      "ssion": 2386,
      "Ġconfigure": 2387,
      "Size": 2388,
      "ĠQ": 2389,
      "Ġits": 2390,
      "ension": 2391,
      "ready": 2392,
      "ors": 2393,
      "Ġcount": 2394,
      "Ġsizeof": 2395,
      "ĠError": 2396,
      "Ġhash": 2397,
      "erved": 2398,
      "Ġoption": 2399,
      "av": 2400,
      "XY": 2401,
      "mutex": 2402,
      "icro": 2403,
      "ency": 2404,
      "Ġmodule": 2405,
      "hlo": 2406,
      "Event": 2407,
      "gh": 2408,
      "ablehlo": 2409,
      "index": 2410,
      "Ġiterator": 2411,
      "Ġavailable": 2412,
      "Ġhe": 2413,
      "Ġimplementation": 2414,
      "www": 2415,
      "hether": 2416,
      "DH": 2417,
      "Ġhost": 2418,
      "RECT": 2419,
      "Ġhigh": 2420,
      "LEEP": 2421,
      "dim": 2422,
      "Ġcore": 2423,
      "RSA": 2424,
      "ĠNumber": 2425,
      "VT": 2426,
      "rx": 2427,
      "Ġcounter": 2428,
      "flash": 2429,
      "State": 2430,
      "cnt": 2431,
      "Ġfilter": 2432,
      "Ġj": 2433,
      "psa": 2434,
      "Ġacc": 2435,
      "Ġconnection": 2436,
      "SIS": 2437,
      "Ġ*>(": 2438,
      "Flat": 2439,
      "sec": 2440,
      "Ġalgorithm": 2441,
      "Ġ12": 2442,
      "acter": 2443,
      "xe": 2444,
      "anc": 2445,
      "ĠClusters": 2446,
      "ATT": 2447,
      "so": 2448,
      "TOUCH": 2449,
      "Ġvirtual": 2450,
      "Handle": 2451,
      "Ġotherwise": 2452,
      "NE": 2453,
      "actual": 2454,
      "ubl": 2455,
      "vision": 2456,
      "Counter": 2457,
      "TOS": 2458,
      "unc": 2459,
      "ctrl": 2460,
      "FD": 2461,
      "Ġtrigger": 2462,
      "gthread": 2463,
      "PT": 2464,
      "Ġmin": 2465,
      "lwip": 2466,
      "Ġfree": 2467,
      "ĠTCD": 2468,
      "Ġfailure": 2469,
      "Ġtimeout": 2470,
      "Ġclear": 2471,
      "MAND": 2472,
      "license": 2473,
      "move": 2474,
      "irection": 2475,
      "bits": 2476,
      "Ġwritten": 2477,
      "HCI": 2478,
      "ĠUSE": 2479,
      "Ġbec": 2480,
      "Ġsupported": 2481,
      "Ġexcept": 2482,
      "ĠSP": 2483,
      "ĠYou": 2484,
      "CLUSTER": 2485,
      "ĠAsynchronous": 2486,
      "Ġreturns": 2487,
      "Enum": 2488,
      "ĠCCL": 2489,
      "RAIN": 2490,
      "bric": 2491,
      "Comp": 2492,
      "ueue": 2493,
      "EQUAL": 2494,
      "peration": 2495,
      "lobal": 2496,
      "Ġcor": 2497,
      "AUT": 2498,
      "Ġsw": 2499,
      "Ġnetif": 2500,
      "MI": 2501,
      "ĠBuffer": 2502,
      "olic": 2503,
      "::__": 2504,
      "ĠTX": 2505,
      "eger": 2506,
      "TY": 2507,
      "ĠWhen": 2508,
      "buil": 2509,
      "used": 2510,
      "tocols": 2511,
      "Ġnode": 2512,
      "UREMENT": 2513,
      "cpwm": 2514,
      "gram": 2515,
      "Ġeach": 2516,
      "Ġreturned": 2517,
      "Ġrec": 2518,
      "Ġbuf": 2519,
      "RESET": 2520,
      "FORM": 2521,
      "ĠĠĠĠĠĠĠĠĠĠĠĠĠĠĠĠĠĠĠĠĠĠĠĠĠĠĠĠĠĠĠĠĠ": 2522,
      "Ġdelay": 2523,
      "Ġ25": 2524,
      "SRAM": 2525,
      "BITS": 2526,
      "Ġimplied": 2527,
      "new": 2528,
      "ĠAttributes": 2529,
      "Ġ=========================================================": 2530,
      "Ġ);": 2531,
      "())": 2532,
      "CFG": 2533,
      "Ġot": 2534,
      "ider": 2535,
      "Ġalready": 2536,
      "Ġexpress": 2537,
      "DIS": 2538,
      "Ġoffset": 2539,
      "version": 2540,
      "pret": 2541,
      "Text": 2542,
      "HS": 2543,
      "ns": 2544,
      "ĠSENSITIVE": 2545,
      "RECE": 2546,
      "ouble": 2547,
      "ĠCapture": 2548,
      "ark": 2549,
      "ĠPORTC": 2550,
      "orage": 2551,
      "ECC": 2552,
      "ĠĠĠĠĠĠĠĠĠĠĠĠĠĠĠĠĠĠĠĠĠĠĠĠĠĠĠĠĠĠĠĠĠĠĠĠ": 2553,
      "xFF": 2554,
      "TRAN": 2555,
      "ATURE": 2556,
      "ĠTCP": 2557,
      "JTAG": 2558,
      "_.": 2559,
      "SENS": 2560,
      "ĠSerial": 2561,
      "iFi": 2562,
      "tflite": 2563,
      "OWER": 2564,
      "Ġsl": 2565,
      "ĠRES": 2566,
      "ENAB": 2567,
      "Ġco": 2568,
      "CONSTRAIN": 2569,
      "tage": 2570,
      "BufferBuilder": 2571,
      "ĠPCNT": 2572,
      "Ġobtain": 2573,
      "TIMEOUT": 2574,
      "Ġdescriptor": 2575,
      "ENABLED": 2576,
      "conds": 2577,
      "igit": 2578,
      "WIFI": 2579,
      "Ġ*__": 2580,
      "Ġright": 2581,
      "rypto": 2582,
      "RF": 2583,
      "ĠRun": 2584,
      "asic": 2585,
      "POSE": 2586,
      "ĠZCL": 2587,
      "ĠIMP": 2588,
      "escri": 2589,
      "ĠDAMA": 2590,
      "ĠTR": 2591,
      "ternal": 2592,
      "ished": 2593,
      "ĠCONTR": 2594,
      "Ġvariable": 2595,
      "99": 2596,
      "Ġpower": 2597,
      "ĠRece": 2598,
      "REGION": 2599,
      "ely": 2600,
      "Callback": 2601,
      "ĠAR": 2602,
      "UART": 2603,
      "ĠCACHE": 2604,
      "Ġcre": 2605,
      "duct": 2606,
      "Ġsee": 2607,
      "60": 2608,
      "eature": 2609,
      "co": 2610,
      "ĠDevice": 2611,
      "level": 2612,
      "FlatBufferBuilder": 2613,
      "BACK": 2614,
      "ĠTLS": 2615,
      "core": 2616,
      "ĠDPORT": 2617,
      "ĠGeneral": 2618,
      "],": 2619,
      "ĠWITHOUT": 2620,
      "curity": 2621,
      "AES": 2622,
      "ultiple": 2623,
      "Ġpermissions": 2624,
      "reed": 2625,
      "Ġregisters": 2626,
      "Ġidentifier": 2627,
      "ĠNo": 2628,
      "Ġbreak": 2629,
      "Ġ11": 2630,
      "URPOSE": 2631,
      "####": 2632,
      "PRI": 2633,
      "LOAD": 2634,
      "LIC": 2635,
      "ENSE": 2636,
      "ERVED": 2637,
      "ĠLIM": 2638,
      "AVE": 2639,
      "interpret": 2640,
      "efuse": 2641,
      "ARE": 2642,
      "expected": 2643,
      "edge": 2644,
      "xFFFFFFFF": 2645,
      "device": 2646,
      "].": 2647,
      "ĠCal": 2648,
      "Read": 2649,
      "());": 2650,
      "Ġ~": 2651,
      "LIED": 2652,
      "ell": 2653,
      "callback": 2654,
      "Base": 2655,
      "we": 2656,
      "att": 2657,
      "DIR": 2658,
      "ĠOUT": 2659,
      "Instance": 2660,
      "leg": 2661,
      "control": 2662,
      "(&": 2663,
      "COMMAND": 2664,
      "IVED": 2665,
      "ift": 2666,
      "sel": 2667,
      "Ġsystem": 2668,
      "options": 2669,
      "licenses": 2670,
      "hw": 2671,
      "IE": 2672,
      "Ġlog": 2673,
      "SING": 2674,
      "Ġdev": 2675,
      "TIF": 2676,
      "tect": 2677,
      "trans": 2678,
      "ious": 2679,
      "ĠRX": 2680,
      "hod": 2681,
      "ĠLIMIT": 2682,
      "Arg": 2683,
      "PK": 2684,
      "ĠBUT": 2685,
      "Ġnetwork": 2686,
      "ĠTH": 2687,
      "SCI": 2688,
      "row": 2689,
      "emp": 2690,
      "ĠIMPLIED": 2691,
      "APB": 2692,
      "CRYPTO": 2693,
      "ĠFL": 2694,
      "ocument": 2695,
      "ĠVersion": 2696,
      "Ġlink": 2697,
      "ĠMax": 2698,
      "do": 2699,
      "ĠWrite": 2700,
      "DESC": 2701,
      "MATION": 2702,
      "ĠLow": 2703,
      "sr": 2704,
      "requency": 2705,
      "RECEIVED": 2706,
      "node": 2707,
      "Ġtw": 2708,
      "STS": 2709,
      "issioning": 2710,
      "ĠĠĠĠĠĠĠĠĠĠĠĠĠĠĠĠĠĠĠĠĠĠĠĠĠĠĠĠĠĠĠĠĠĠĠ": 2711,
      "ures": 2712,
      "Max": 2713,
      "ARM": 2714,
      "Ġdirect": 2715,
      "ination": 2716,
      "server": 2717,
      "this": 2718,
      "Sc": 2719,
      "Copyright": 2720,
      "Ġ15": 2721,
      "Res": 2722,
      "Ġsuccessfully": 2723,
      "tag": 2724,
      "ĠKIND": 2725,
      "usb": 2726,
      "Ġ64": 2727,
      "ĠReset": 2728,
      "Message": 2729,
      "CK": 2730,
      "flag": 2731,
      "ĠLIABILITY": 2732,
      "peed": 2733,
      "Ġreference": 2734,
      "ĠLIMITED": 2735,
      "SUMMATION": 2736,
      "FIN": 2737,
      "sub": 2738,
      "Ġreport": 2739,
      "af": 2740,
      "wifi": 2741,
      "ires": 2742,
      "DITION": 2743,
      "ĠPAR": 2744,
      "ĠSize": 2745,
      "emper": 2746,
      "ĠSc": 2747,
      "ĠĠĠĠĠĠĠĠĠĠĠĠĠĠĠĠĠĠĠĠĠĠĠĠĠĠĠĠĠĠĠĠĠĠ": 2748,
      "Ġ&_": 2749,
      "FileCopyright": 2750,
      "FileCopyrightText": 2751,
      "builtin": 2752,
      "Ġdest": 2753,
      "olicy": 2754,
      "Ġqueue": 2755,
      "Ġpar": 2756,
      "eration": 2757,
      "threshold": 2758,
      "Ġtag": 2759,
      "ERRUPT": 2760,
      "MSTP": 2761,
      "easurement": 2762,
      "Ġap": 2763,
      "igned": 2764,
      "bo": 2765,
      "ĠAl": 2766,
      "BI": 2767,
      "emperature": 2768,
      "Forward": 2769,
      "Ġme": 2770,
      "Ġperipheral": 2771,
      "FIL": 2772,
      "00000003": 2773,
      "gn": 2774,
      "xc": 2775,
      "Ġman": 2776,
      "edi": 2777,
      "sw": 2778,
      "Ġep": 2779,
      "cla": 2780,
      "INPUT": 2781,
      "Ġservice": 2782,
      "Ġraw": 2783,
      "Ġop": 2784,
      "SERIAL": 2785,
      "ANT": 2786,
      "Pack": 2787,
      "Path": 2788,
      "POWER": 2789,
      "ĠCRC": 2790,
      "cache": 2791,
      "Ġhold": 2792,
      "Ġbecause": 2793,
      "free": 2794,
      "Ġtim": 2795,
      "SUB": 2796,
      "EFUSE": 2797,
      "mt": 2798,
      "SEND": 2799,
      "ene": 2800,
      "ended": 2801,
      "ie": 2802,
      "uch": 2803,
      "SN": 2804,
      "Ġmaximum": 2805,
      "Ġback": 2806,
      "SUPPORTED": 2807,
      "Ġorder": 2808,
      "ses": 2809,
      "actionModel": 2810,
      "ryption": 2811,
      "VA": 2812,
      "ĠTfLite": 2813,
      "AK": 2814,
      "Ġtr": 2815,
      "Ġwhere": 2816,
      "width": 2817,
      "ForwardIterator": 2818,
      "PERI": 2819,
      "Ġdocument": 2820,
      "OWN": 2821,
      "Ġunit": 2822,
      "LWIP": 2823,
      "Ġsignature": 2824,
      "ĠHID": 2825,
      "CF": 2826,
      "70": 2827,
      "ransport": 2828,
      "abel": 2829,
      "ASYNCUSER": 2830,
      "Ġthere": 2831,
      "ĠBA": 2832,
      "ics": 2833,
      "angu": 2834,
      "eer": 2835,
      "Name": 2836,
      "SINGLE": 2837,
      "ique": 2838,
      "thread": 2839,
      "ĠReturns": 2840,
      "===": 2841,
      "ClusterId": 2842,
      "ĠTHIS": 2843,
      "sum": 2844,
      "Ġcycles": 2845,
      "TRACE": 2846,
      "actor": 2847,
      "Se": 2848,
      "ĠMAC": 2849,
      "Ġpas": 2850,
      "Ġapplicable": 2851,
      "anguage": 2852,
      "Ġentry": 2853,
      "order": 2854,
      "vt": 2855,
      "ending": 2856,
      "Ġlayer": 2857,
      "XYGEN": 2858,
      "MEAS": 2859,
      "PACKED": 2860,
      "Ġwhether": 2861,
      "ustom": 2862,
      "host": 2863,
      "CSR": 2864,
      "Ġtable": 2865,
      "Ġsetting": 2866,
      "Ġ24": 2867,
      "internal": 2868,
      "Ġtarget": 2869,
      "Input": 2870,
      "PRIV": 2871,
      "lot": 2872,
      "CONF": 2873,
      "InteractionModel": 2874,
      "ĠSH": 2875,
      "CA": 2876,
      "be": 2877,
      "Protocols": 2878,
      "Ġthread": 2879,
      "CODE": 2880,
      "ROM": 2881,
      "Ġlast": 2882,
      "ĠConfiguration": 2883,
      "TEMP": 2884,
      "FLOW": 2885,
      "word": 2886,
      "opt": 2887,
      "DUT": 2888,
      "String": 2889,
      "CY": 2890,
      "DUTY": 2891,
      "ement": 2892,
      "COL": 2893,
      "CAP": 2894,
      "///": 2895,
      "Ġflags": 2896,
      "Hz": 2897,
      "hape": 2898,
      "Ġlock": 2899,
      "ĠAr": 2900,
      "next": 2901,
      "aster": 2902,
      "Ġcert": 2903,
      "Ġuart": 2904,
      "xt": 2905,
      "88": 2906,
      "Ġauth": 2907,
      "Ġvector": 2908,
      "Ġprivate": 2909,
      "ĠHigh": 2910,
      "ifo": 2911,
      "Ġframe": 2912,
      "Ġbeing": 2913,
      "Queue": 2914,
      "date": 2915,
      "COUN": 2916,
      "intr": 2917,
      "except": 2918,
      "WRITE": 2919,
      "NESS": 2920,
      "ytes": 2921,
      "ĠClusterId": 2922,
      "isc": 2923,
      "liance": 2924,
      "Ġpos": 2925,
      "ACC": 2926,
      "ĠST": 2927,
      "Ġlanguage": 2928,
      "test": 2929,
      "ĠClear": 2930,
      "_(": 2931,
      "change": 2932,
      "raw": 2933,
      "ĠParamet": 2934,
      "ETHER": 2935,
      "ĠEndpoint": 2936,
      "uring": 2937,
      "Ġph": 2938,
      "ixed": 2939,
      "Ġneg": 2940,
      "ĠReserved": 2941,
      "Ġsent": 2942,
      "ian": 2943,
      "Ġcipher": 2944,
      "ĠRedistributions": 2945,
      "ĠGNU": 2946,
      "INLINE": 2947,
      "Ġdocumentation": 2948,
      "Ġdiscla": 2949,
      "vector": 2950,
      "ocket": 2951,
      "ĠCounter": 2952,
      "vious": 2953,
      "Ġlaw": 2954,
      "34": 2955,
      "Ġqu": 2956,
      "off": 2957,
      "ĠCOPY": 2958,
      "(::": 2959,
      "Ġdisclaimer": 2960,
      "Ġ.*/": 2961,
      "THREAD": 2962,
      "Ġprocess": 2963,
      "ty": 2964,
      "ĠTEST": 2965,
      "TCP": 2966,
      "AVR": 2967,
      "disable": 2968,
      "UID": 2969,
      "ĉĠĠĠĠĠ": 2970,
      "Ġwor": 2971,
      "ias": 2972,
      "512": 2973,
      "Ġdefin": 2974,
      "EOF": 2975,
      "ĠJ": 2976,
      ">&": 2977,
      "Thread": 2978,
      "cul": 2979,
      "Ġenc": 2980,
      "hedule": 2981,
      "Ġcompliance": 2982,
      "STOP": 2983,
      "FU": 2984,
      "cxx": 2985,
      "ĠPURPOSE": 2986,
      "UTE": 2987,
      "LICENSE": 2988,
      "Ġgover": 2989,
      "Ġagreed": 2990,
      "ĠCONDITION": 2991,
      "DRAM": 2992,
      "Null": 2993,
      "ng": 2994,
      "CharT": 2995,
      "Ġ20": 2996,
      "ĠHP": 2997,
      "iag": 2998,
      "send": 2999,
      "ingle": 3000,
      "Ġgoverning": 3001,
      "tcp": 3002,
      "etwork": 3003,
      "IOD": 3004,
      "ĠOTHER": 3005,
      "ĠWDT": 3006,
      "*)": 3007,
      "0000000": 3008,
      "ĠLock": 3009,
      "ĠCONDITIONS": 3010,
      "ĠBASIS": 3011,
      "public": 3012,
      "INCLUDING": 3013,
      "element": 3014,
      "ĠRuntime": 3015,
      "FILE": 3016,
      "EEE": 3017,
      "apache": 3018,
      "ĠĠĠĠĠĠĠĠĠĠĠĠĠĠĠĠĠĠĠĠĠĠĠĠĠĠĠĠĠĠĠĠĠĠĠĠĠĠĠĠĠĠĠĠ": 3019,
      "ception": 3020,
      "gnu": 3021,
      "WORLD": 3022,
      "ECD": 3023,
      "Ġcrypto": 3024,
      "idx": 3025,
      "me": 3026,
      "Stablehlo": 3027,
      "BV": 3028,
      "PE": 3029,
      "imp": 3030,
      "Fa": 3031,
      "ĠFunction": 3032,
      "CHMUX": 3033,
      "DER": 3034,
      "SERVER": 3035,
      "Ġpayload": 3036,
      "UX": 3037,
      "Ġver": 3038,
      "ARY": 3039,
      "SLEEP": 3040,
      "Ġsleep": 3041,
      "ULAR": 3042,
      "Ġcb": 3043,
      "ĠDE": 3044,
      "ffff": 3045,
      "ĠAES": 3046,
      "ĠRESERVED": 3047,
      "obj": 3048,
      "âĶ": 3049,
      "Ġpassed": 3050,
      "ĠPeriod": 3051,
      "atri": 3052,
      "PRESS": 3053,
      "Ġ13": 3054,
      "ĠĠĠĠĠĠĠĠĠĠĠĠĠĠĠĠĠĠĠĠĠĠĠĠĠĠĠĠĠĠĠĠĠĠĠĠĠĠĠĠĠĠĠĠĠ": 3055,
      "ĠAuth": 3056,
      "Ġtouch": 3057,
      "ccept": 3058,
      "ĠBIT": 3059,
      "xa": 3060,
      "ĠCTR": 3061,
      "Ġ>>": 3062,
      "49": 3063,
      "78": 3064,
      "com": 3065,
      "ld": 3066,
      "MIT": 3067,
      "MB": 3068,
      "recated": 3069,
      "Gener": 3070,
      "CONN": 3071,
      "gen": 3072,
      "func": 3073,
      ">>": 3074,
      "Ġreinterpret": 3075,
      "ĠNote": 3076,
      "ĠGetClusterId": 3077,
      "Error": 3078,
      "ĠVerify": 3079,
      "ATED": 3080,
      "Ġchange": 3081,
      "address": 3082,
      "Ġpl": 3083,
      "ĠBOD": 3084,
      "Ġitem": 3085,
      "Ġdiv": 3086,
      "ISR": 3087,
      "params": 3088,
      "ĠApp": 3089,
      "tails": 3090,
      "ĠId": 3091,
      "ĠAttributeId": 3092,
      "LINK": 3093,
      "Ġyour": 3094,
      "met": 3095,
      "TU": 3096,
      "ĠAPB": 3097,
      "nown": 3098,
      "pth": 3099,
      "igital": 3100,
      "CBC": 3101,
      "ta": 3102,
      "ĠSHA": 3103,
      "iated": 3104,
      "payload": 3105,
      "gpio": 3106,
      "Ġnext": 3107,
      "Ġwait": 3108,
      "Tr": 3109,
      "ARD": 3110,
      "IGHT": 3111,
      "cd": 3112,
      "Ġrun": 3113,
      "ible": 3114,
      "Ġinstead": 3115,
      "Tag": 3116,
      "Ġdif": 3117,
      "Ġrtc": 3118,
      "Ġusb": 3119,
      "til": 3120,
      "ARGET": 3121,
      "100": 3122,
      "CU": 3123,
      "ject": 3124,
      "ptional": 3125,
      "ATA": 3126,
      "ERCHAN": 3127,
      "ITNESS": 3128,
      "FC": 3129,
      "TABILITY": 3130,
      "ERCHANTABILITY": 3131,
      "PIF": 3132,
      "SLAVE": 3133,
      "Ġperiod": 3134,
      "ĠHAL": 3135,
      "Ġ14": 3136,
      "common": 3137,
      "uto": 3138,
      "latform": 3139,
      "Ġcalling": 3140,
      "RET": 3141,
      "ĠPublic": 3142,
      "http": 3143,
      "Ġsome": 3144,
      "andard": 3145,
      "conn": 3146,
      "DSCR": 3147,
      "Ġtcp": 3148,
      "IVER": 3149,
      "Ġhal": 3150,
      "NON": 3151,
      "ibration": 3152,
      "NET": 3153,
      "ker": 3154,
      "mitted": 3155,
      "DATE": 3156,
      "SPEC": 3157,
      "ĠFITNESS": 3158,
      "Ġperform": 3159,
      "itional": 3160,
      "TM": 3161,
      "TARGET": 3162,
      "Ġhandler": 3163,
      "ĠDAC": 3164,
      "MSK": 3165,
      "reset": 3166,
      "bus": 3167,
      "legate": 3168,
      "Ġbus": 3169,
      "ĠMERCHANTABILITY": 3170,
      "TICULAR": 3171,
      "SARADC": 3172,
      "ĠPARTICULAR": 3173,
      "Ġstream": 3174,
      "Create": 3175,
      "TRIG": 3176,
      "Ġctx": 3177,
      "ising": 3178,
      ")_": 3179,
      "Count": 3180,
      "Ġ(!": 3181,
      "log": 3182,
      "Ġerr": 3183,
      "respon": 3184,
      "LOW": 3185,
      "PS": 3186,
      "HI": 3187,
      "FLAGS": 3188,
      "Ġ...": 3189,
      "ĠHOST": 3190,
      "spec": 3191,
      "Ġproduct": 3192,
      "Dim": 3193,
      "CHIP": 3194,
      "Ġ@{": 3195,
      "Ġlocal": 3196,
      "ROUP": 3197,
      "msg": 3198,
      "------": 3199,
      "REC": 3200,
      "PC": 3201,
      "Ġder": 3202,
      "Ġhardware": 3203,
      "uty": 3204,
      "ft": 3205,
      "ication": 3206,
      "55": 3207,
      "ĠFIFO": 3208,
      "mpl": 3209,
      "ecution": 3210,
      "COLOR": 3211,
      "aps": 3212,
      "DIG": 3213,
      "Ġsrc": 3214,
      "und": 3215,
      "ĠOSC": 3216,
      "TRANS": 3217,
      "Ġsec": 3218,
      "DET": 3219,
      "ĠIO": 3220,
      "Ġ*,": 3221,
      "UB": 3222,
      "erase": 3223,
      "ĠSuccess": 3224,
      "Ġzero": 3225,
      "ĠEnum": 3226,
      "083": 3227,
      "IFIC": 3228,
      "rop": 3229,
      "lication": 3230,
      "BUFFERS": 3231,
      "create": 3232,
      "ĠNO": 3233,
      "stri": 3234,
      "Ġ++": 3235,
      "oll": 3236,
      "__((": 3237,
      "ffect": 3238,
      "ALT": 3239,
      "PERIOD": 3240,
      "PRIVATE": 3241,
      "As": 3242,
      "ĠNone": 3243,
      "Ġmodel": 3244,
      "sys": 3245,
      "Ġattributes": 3246,
      "ph": 3247,
      "Ġduring": 3248,
      "arch": 3249,
      "connected": 3250,
      "pc": 3251,
      "MES": 3252,
      "CHOST": 3253,
      "ECP": 3254,
      "ery": 3255,
      "Ġwork": 3256,
      "stdint": 3257,
      "ĠPORTCFG": 3258,
      "sps": 3259,
      "ĠSSL": 3260,
      "UF": 3261,
      "ĠCheck": 3262,
      "MESSA": 3263,
      "types": 3264,
      "espressif": 3265,
      "Ġets": 3266,
      "DM": 3267,
      "register": 3268,
      "INTEN": 3269,
      "798": 3270,
      "USED": 3271,
      "ĠInitial": 3272,
      "Write": 3273,
      "Ġ+=": 3274,
      "GROUP": 3275,
      "442": 3276,
      "Ġrx": 3277,
      "CLKSEL": 3278,
      "Ġactive": 3279,
      "api": 3280,
      "Ġocc": 3281,
      "ĠCluster": 3282,
      "ĠLCD": 3283,
      "SIGN": 3284,
      "Ġtest": 3285,
      "ĠBits": 3286,
      "Ġnoexcept": 3287,
      "dest": 3288,
      "irty": 3289,
      "STATIC": 3290,
      "50": 3291,
      "elif": 3292,
      "ĠPC": 3293,
      "Pre": 3294,
      "atrix": 3295,
      "ames": 3296,
      "pin": 3297,
      "ĠSIG": 3298,
      "ĠGCC": 3299,
      "DecodableType": 3300,
      "798083": 3301,
      "itor": 3302,
      "precated": 3303,
      "Ġassoc": 3304,
      "ĠComm": 3305,
      "alle": 3306,
      "Ġalso": 3307,
      "ingroup": 3308,
      "ena": 3309,
      "update": 3310,
      "Span": 3311,
      "POS": 3312,
      "fd": 3313,
      "table": 3314,
      "nd": 3315,
      "ARGS": 3316,
      "perator": 3317,
      "Ġcom": 3318,
      "ason": 3319,
      "ession": 3320,
      "Ġmean": 3321,
      "iph": 3322,
      "MOD": 3323,
      "rescal": 3324,
      "NAME": 3325,
      "Ġmcpwm": 3326,
      "45": 3327,
      "->_": 3328,
      "Ġtx": 3329,
      "ORS": 3330,
      "Ġprevious": 3331,
      "Tensor": 3332,
      "flags": 3333,
      "POINT": 3334,
      "ĠDet": 3335,
      "Ġrights": 3336,
      "NONE": 3337,
      "NT": 3338,
      "ificate": 3339,
      "elay": 3340,
      "Ġsession": 3341,
      "802": 3342,
      "NG": 3343,
      "`.": 3344,
      "Ġhere": 3345,
      "PACKET": 3346,
      "Ġcomple": 3347,
      "ined": 3348,
      "ĠNE": 3349,
      "Response": 3350,
      "Ġpass": 3351,
      "SPLIT": 3352,
      "ĠEXT": 3353,
      "oth": 3354,
      "STIMER": 3355,
      "EMENT": 3356,
      "ICACHE": 3357,
      "igb": 3358,
      "ĠUHCI": 3359,
      "MIC": 3360,
      "ACTI": 3361,
      "TfLite": 3362,
      "TypeInfo": 3363,
      "OCK": 3364,
      "Ġoptions": 3365,
      "AST": 3366,
      "check": 3367,
      "Address": 3368,
      "CCESS": 3369,
      "omic": 3370,
      "ĠRequest": 3371,
      "bytes": 3372,
      "ĠPPP": 3373,
      "Ġstep": 3374,
      "float": 3375,
      "Ġcharacter": 3376,
      "copy": 3377,
      "AND": 3378,
      "ices": 3379,
      "DAC": 3380,
      "iver": 3381,
      "IPV": 3382,
      "Ġmethod": 3383,
      "ĠOver": 3384,
      "ĠPO": 3385,
      "ATBUFFERS": 3386,
      "Ġbet": 3387,
      "35": 3388,
      "ENTI": 3389,
      "Ġallocated": 3390,
      "igbee": 3391,
      "SON": 3392,
      "Ġdesc": 3393,
      "ĠCurrent": 3394,
      "crypto": 3395,
      "ĠUse": 3396,
      "Ġ@}": 3397,
      "pk": 3398,
      "ven": 3399,
      "WAKE": 3400,
      "ĠOperation": 3401,
      "69": 3402,
      "Context": 3403,
      "active": 3404,
      "ĠIR": 3405,
      "ade": 3406,
      "Ġtwo": 3407,
      "EAR": 3408,
      "Ġtypes": 3409,
      "OG": 3410,
      "pose": 3411,
      "IRQ": 3412,
      "adding": 3413,
      "Node": 3414,
      "Manag": 3415,
      "ĠOffset": 3416,
      "ĠUnless": 3417,
      "Ġpath": 3418,
      "Ġupdate": 3419,
      "Ġcorrespon": 3420,
      "ĠMPU": 3421,
      "Ġcompat": 3422,
      "DRIVER": 3423,
      "Number": 3424,
      "IFY": 3425,
      "escriptor": 3426,
      "INTERNAL": 3427,
      "End": 3428,
      "Ġter": 3429,
      "ELD": 3430,
      "TT": 3431,
      "THRESH": 3432,
      "CRC": 3433,
      "Ġlimitations": 3434,
      "onitor": 3435,
      "Config": 3436,
      "tensor": 3437,
      "ACCESS": 3438,
      "adc": 3439,
      "MEASUREMENT": 3440,
      "Ġparams": 3441,
      "BB": 3442,
      "Ġlwip": 3443,
      "Ġelements": 3444,
      "TIN": 3445,
      "ĠLicensed": 3446,
      "--------------------------------------------------------------------------": 3447,
      "00000000": 3448,
      "ĠLUT": 3449,
      "HB": 3450,
      "VERED": 3451,
      "43": 3452,
      "SUCCESS": 3453,
      "ĠBE": 3454,
      "WANT": 3455,
      "oltage": 3456,
      "Priority": 3457,
      "ials": 3458,
      "Ġatt": 3459,
      "dst": 3460,
      "Ġdisabled": 3461,
      "Ġwithin": 3462,
      "MUL": 3463,
      "GES": 3464,
      "WORD": 3465,
      "ĠTU": 3466,
      "CLIENT": 3467,
      "LER": 3468,
      "FRE": 3469,
      "BYP": 3470,
      "LIVERED": 3471,
      "alg": 3472,
      "Ġinteger": 3473,
      "inish": 3474,
      "Ġalways": 3475,
      "Ġconfigured": 3476,
      "90": 3477,
      "RESP": 3478,
      "Ġcreated": 3479,
      "arning": 3480,
      "================================================================": 3481,
      "PLL": 3482,
      "Access": 3483,
      "part": 3484,
      "Ġwant": 3485,
      "wd": 3486,
      "urpose": 3487,
      "ĠXT": 3488,
      "ĠTLV": 3489,
      "ĠWH": 3490,
      "ĠDI": 3491,
      "Ġregion": 3492,
      "limit": 3493,
      "Ġswitch": 3494,
      "ĠTo": 3495,
      "Ġdone": 3496,
      "Ġconnect": 3497,
      "duce": 3498,
      "KER": 3499,
      "PAGE": 3500,
      "fn": 3501,
      "DELIVERED": 3502,
      "allel": 3503,
      "Ġprogram": 3504,
      "82": 3505,
      "Ġpriority": 3506,
      "ĠWindow": 3507,
      "Length": 3508,
      "Ġassociated": 3509,
      "ĠOCR": 3510,
      "ration": 3511,
      "ĠDH": 3512,
      "imple": 3513,
      "rou": 3514,
      "Ġoverride": 3515,
      "ĠMust": 3516,
      "RIGHT": 3517,
      "Ġfbb": 3518,
      "ĠKey": 3519,
      "road": 3520,
      "ferent": 3521,
      "ĠEVENT": 3522,
      "Ġpubl": 3523,
      "ĠSN": 3524,
      "ĠDATA": 3525,
      "operation": 3526,
      "ICAL": 3527,
      "tmp": 3528,
      "plic": 3529,
      "riter": 3530,
      "ALLOC": 3531,
      "Ġfound": 3532,
      "ĠREG": 3533,
      "pthread": 3534,
      "HEAD": 3535,
      "roadcast": 3536,
      "scal": 3537,
      "Ġ**": 3538,
      "Control": 3539,
      "Request": 3540,
      "clr": 3541,
      "ĠPWM": 3542,
      "ĠBus": 3543,
      "ĠWiFi": 3544,
      "essages": 3545,
      "icks": 3546,
      "DIRECT": 3547,
      "driver": 3548,
      "SED": 3549,
      "Ġsuch": 3550,
      "ĠTCB": 3551,
      "ĠStop": 3552,
      "BE": 3553,
      "************": 3554,
      "RAY": 3555,
      "Start": 3556,
      "Ġchang": 3557,
      "rough": 3558,
      "Shape": 3559,
      "ces": 3560,
      "eded": 3561,
      "ular": 3562,
      "ĠLight": 3563,
      "model": 3564,
      "ENTR": 3565,
      "div": 3566,
      "ĠTRACE": 3567,
      "SCH": 3568,
      "XT": 3569,
      "Ġpbuf": 3570,
      "Ġfrequency": 3571,
      "Ġequal": 3572,
      "MASTER": 3573,
      "Group": 3574,
      "ĠPar": 3575,
      "42": 3576,
      "ĠSHALL": 3577,
      "DOXYGEN": 3578,
      "SPECIFIC": 3579,
      "Of": 3580,
      "/*****************************************************************": 3581,
      "verse": 3582,
      "OID": 3583,
      "Compare": 3584,
      "del": 3585,
      "ĠFLATBUFFERS": 3586,
      "CID": 3587,
      "WAKEUP": 3588,
      "plicit": 3589,
      "61": 3590,
      "dicate": 3591,
      "ĠTable": 3592,
      "Struct": 3593,
      "gener": 3594,
      "THRESHOLD": 3595,
      "Equal": 3596,
      "Ġsequence": 3597,
      "GTH": 3598,
      "user": 3599,
      "CHANGE": 3600,
      "GENER": 3601,
      "IPHER": 3602,
      "igest": 3603,
      "vo": 3604,
      "emory": 3605,
      "Ġsection": 3606,
      "AIM": 3607,
      "ruction": 3608,
      "ACTIVE": 3609,
      "MESSAGE": 3610,
      "Dirty": 3611,
      "efer": 3612,
      "rw": 3613,
      "mpi": 3614,
      "Traits": 3615,
      "Ġpeer": 3616,
      "Ġcur": 3617,
      "Ġshall": 3618,
      "ov": 3619,
      "Ġcontains": 3620,
      "Val": 3621,
      "Level": 3622,
      "FULL": 3623,
      "traits": 3624,
      "Param": 3625,
      "Ġdec": 3626,
      "support": 3627,
      "Ġem": 3628,
      "OSS": 3629,
      "CTL": 3630,
      "emptydescription": 3631,
      "ient": 3632,
      "WAIT": 3633,
      "ĠPower": 3634,
      "color": 3635,
      "nalog": 3636,
      "Map": 3637,
      "200": 3638,
      "ibility": 3639,
      "arent": 3640,
      "AF": 3641,
      "Ġ--": 3642,
      "EXCE": 3643,
      "ries": 3644,
      "Ġcop": 3645,
      "PHY": 3646,
      "COUNT": 3647,
      "ĠDecodableType": 3648,
      "Ġ<=": 3649,
      "olut": 3650,
      "Ġreceive": 3651,
      "ric": 3652,
      "Enable": 3653,
      "PLAT": 3654,
      "ied": 3655,
      "Ġtransfer": 3656,
      "Ġpartition": 3657,
      "Ġ200": 3658,
      "DISA": 3659,
      "Or": 3660,
      "Ġrefer": 3661,
      "cent": 3662,
      "Ġthese": 3663,
      "LENGTH": 3664,
      "rt": 3665,
      "Ġsys": 3666,
      "_;": 3667,
      "ween": 3668,
      "APM": 3669,
      "CTRLA": 3670,
      "Ġinfo": 3671,
      "384": 3672,
      "DECL": 3673,
      "initial": 3674,
      "Qu": 3675,
      "always": 3676,
      "VID": 3677,
      "ĠMST": 3678,
      "CHAR": 3679,
      "ĠFound": 3680,
      "Ġcap": 3681,
      "(*": 3682,
      "ĠPHY": 3683,
      "IGH": 3684,
      "tal": 3685,
      "BYPASS": 3686,
      "154": 3687,
      "ĠDAMAGES": 3688,
      "GR": 3689,
      "Ġconf": 3690,
      "ARRAY": 3691,
      "MAT": 3692,
      "Ġexample": 3693,
      "FAST": 3694,
      "ĠWT": 3695,
      "Ġscan": 3696,
      "From": 3697,
      "ĠMB": 3698,
      "INDOW": 3699,
      "Ġ``": 3700,
      "PLATFORM": 3701,
      ">;": 3702,
      "RI": 3703,
      "RTOS": 3704,
      "sible": 3705,
      "Not": 3706,
      "Ġ,": 3707,
      "Ġwifi": 3708,
      "ISING": 3709,
      ">(__": 3710,
      "On": 3711,
      "elements": 3712,
      "LSCH": 3713,
      "Cluster": 3714,
      "ulti": 3715,
      "GT": 3716,
      "ISO": 3717,
      "Nullable": 3718,
      "WAI": 3719,
      "ĠFoundation": 3720,
      "aes": 3721,
      "Random": 3722,
      "33": 3723,
      "gy": 3724,
      "Ġ(((": 3725,
      "from": 3726,
      "ĠCall": 3727,
      "PAY": 3728,
      "Ġbetween": 3729,
      "box": 3730,
      "Ġmatch": 3731,
      "Ġrecord": 3732,
      "printf": 3733,
      "Fabric": 3734,
      "LITE": 3735,
      "Ġaction": 3736,
      "ĠĠĠĠĠĠĠĠĠĠĠĠĠĠĠĠĠĠĠĠĠĠĠĠĠĠĠĠĠĠĠĠĠĠĠĠĠĠĠĠĠĠĠĠĠĠĠĠĠ": 3737,
      "PRESCAL": 3738,
      "ouch": 3739,
      "Th": 3740,
      "Ġtransaction": 3741,
      "MANUF": 3742,
      "akeup": 3743,
      "Is": 3744,
      "Device": 3745,
      "OEN": 3746,
      "Ġedge": 3747,
      "Timer": 3748,
      "now": 3749,
      "Cache": 3750,
      "Ġrandom": 3751,
      "SCAN": 3752,
      "ĠINCLUDING": 3753,
      "ND": 3754,
      "easured": 3755,
      "ĠCount": 3756,
      "Ġmultiple": 3757,
      "distribut": 3758,
      "ERROW": 3759,
      "Ġcorresponding": 3760,
      "ĠCA": 3761,
      "Ġincluded": 3762,
      "ONLY": 3763,
      "COMM": 3764,
      "AX": 3765,
      "65": 3766,
      "UUID": 3767,
      "wait": 3768,
      "Ġpad": 3769,
      "FIELD": 3770,
      "Ġexist": 3771,
      "Ġindicates": 3772,
      "wn": 3773,
      "////////////////": 3774,
      "Ġneeds": 3775,
      "long": 3776,
      "ĠServer": 3777,
      "ĠUnity": 3778,
      "Ġrout": 3779,
      "Ġsn": 3780,
      "Ġhand": 3781,
      "umm": 3782,
      "CALL": 3783,
      "ĠSend": 3784,
      "Ġstored": 3785,
      "USR": 3786,
      "Ġdirectly": 3787,
      "API": 3788,
      "sdk": 3789,
      "264": 3790,
      "ĠCTRL": 3791,
      "ĠWIFI": 3792,
      "LIG": 3793,
      "Ġpx": 3794,
      "ĠNot": 3795,
      "Up": 3796,
      "USART": 3797,
      "arator": 3798,
      "UTH": 3799,
      "Ġpers": 3800,
      "Ġdifferent": 3801,
      "down": 3802,
      "ĠNe": 3803,
      "CIPHER": 3804,
      "WISE": 3805,
      "Ġclk": 3806,
      "ĠTimeout": 3807,
      "MCPWM": 3808,
      "ia": 3809,
      "hcp": 3810,
      "ĠLibrary": 3811,
      "Operator": 3812,
      "SAMP": 3813,
      "handler": 3814,
      "Per": 3815,
      "ĠLIABLE": 3816,
      "ĠCalibration": 3817,
      "ĠAnalog": 3818,
      "ĠWHETHER": 3819,
      "Ġthrough": 3820,
      "'d": 3821,
      "STD": 3822,
      "ĠARISING": 3823,
      "mb": 3824,
      "Ġsingle": 3825,
      "Ġleast": 3826,
      "ĠTIM": 3827,
      "Ġplatform": 3828,
      "lose": 3829,
      "DataModel": 3830,
      "Ġdistribution": 3831,
      ")))": 3832,
      "BUIL": 3833,
      "imed": 3834,
      "ĠOpen": 3835,
      "BILITY": 3836,
      "Ġfail": 3837,
      "Ġms": 3838,
      "cipher": 3839,
      "Ġthreshold": 3840,
      "BYT": 3841,
      "IBUT": 3842,
      "NETIF": 3843,
      "byte": 3844,
      "ĠInterface": 3845,
      "tobuf": 3846,
      "seconds": 3847,
      "slave": 3848,
      "irm": 3849,
      "Ġstr": 3850,
      "UNIT": 3851,
      "RDY": 3852,
      "des": 3853,
      "light": 3854,
      "xy": 3855,
      "Ġfiles": 3856,
      "ĠEnd": 3857,
      "Ġboth": 3858,
      "67": 3859,
      "Server": 3860,
      "MR": 3861,
      "ention": 3862,
      "IAS": 3863,
      "EXPORT": 3864,
      "Ġsm": 3865,
      "Ġoperations": 3866,
      "ĠCONTRACT": 3867,
      "ĠBY": 3868,
      "DEL": 3869,
      "CommandList": 3870,
      "ole": 3871,
      "NULL": 3872,
      "FUNCTION": 3873,
      "Ġmeans": 3874,
      "FLL": 3875,
      "ĠPriority": 3876,
      "scill": 3877,
      "ĠInternal": 3878,
      "unit": 3879,
      "Function": 3880,
      "stream": 3881,
      "ĠPlease": 3882,
      "lass": 3883,
      "OVER": 3884,
      "verifier": 3885,
      "ĠEXTMEM": 3886,
      "Ġloop": 3887,
      "MAIN": 3888,
      "Writer": 3889,
      "ĠResponse": 3890,
      "ĠPROVID": 3891,
      "ĠPROVIDED": 3892,
      "Clusters": 3893,
      "ĠIEEE": 3894,
      "Ġspace": 3895,
      "private": 3896,
      "NV": 3897,
      "NAM": 3898,
      "Ġbuilder": 3899,
      "Ġpage": 3900,
      "802154": 3901,
      "hardware": 3902,
      "ĠIPv": 3903,
      "ĠEXPRESS": 3904,
      "âĶĢ": 3905,
      "ensions": 3906,
      "store": 3907,
      "ĠString": 3908,
      "SIX": 3909,
      "ĠMaximum": 3910,
      "ĠAT": 3911,
      "ĠĠĠĠĠĠĠĠĠĠĠĠĠĠĠĠĠĠĠĠĠĠĠĠĠĠĠĠĠĠĠĠĠĠĠĠĠĠĠĠĠĠĠĠĠĠĠĠ": 3912,
      "Ġcontaining": 3913,
      "HIGH": 3914,
      "Ġinit": 3915,
      "36": 3916,
      "Ġsd": 3917,
      "Ġmater": 3918,
      "quires": 3919,
      "done": 3920,
      "Ġcontroller": 3921,
      "allocator": 3922,
      "perty": 3923,
      "ATOR": 3924,
      "icast": 3925,
      "LIGHT": 3926,
      "IDLE": 3927,
      "POL": 3928,
      "ĠTW": 3929,
      "ĠĠĠĠĠĠĠĠĠĠĠĠĠĠĠĠĠĠĠĠĠĠĠĠĠĠĠĠĠĠĠĠĠĠĠĠĠĠĠĠĠĠĠĠĠĠ": 3930,
      "aint": 3931,
      "RED": 3932,
      "Ġstop": 3933,
      "ctive": 3934,
      "ICT": 3935,
      "ĠGroup": 3936,
      "InputIterator": 3937,
      "ĠTransmit": 3938,
      "201": 3939,
      "mn": 3940,
      "Ġsensor": 3941,
      "PROM": 3942,
      "Ġalg": 3943,
      "ĠSTR": 3944,
      "Ġput": 3945,
      "ĠOTHERWISE": 3946,
      "lp": 3947,
      "IGN": 3948,
      "47": 3949,
      "Min": 3950,
      "current": 3951,
      "eee": 3952,
      "Ġ{}": 3953,
      "PTR": 3954,
      "Ġadc": 3955,
      "DA": 3956,
      "Ġloc": 3957,
      "ĠTORT": 3958,
      "ĠCore": 3959,
      "Ġprint": 3960,
      "Ġadditional": 3961,
      "::_": 3962,
      "Field": 3963,
      "ĠContext": 3964,
      "ights": 3965,
      "PSK": 3966,
      "MANUFACT": 3967,
      "Ġprotocol": 3968,
      "MANAG": 3969,
      "Ġ},": 3970,
      "IRAM": 3971,
      "vertising": 3972,
      "ĠCOPYRIGHT": 3973,
      "Ġdetails": 3974,
      "&&": 3975,
      "INFO": 3976,
      "activation": 3977,
      "SLP": 3978,
      "ĉĠĠ": 3979,
      "ULE": 3980,
      "wr": 3981,
      "endor": 3982,
      "ook": 3983,
      "ĠWe": 3984,
      "ĠBUS": 3985,
      "ĠTransfer": 3986,
      "ĠVT": 3987,
      "imal": 3988,
      "ĠTypeInfo": 3989,
      "WINDOW": 3990,
      "Ġcmd": 3991,
      "Ġnegative": 3992,
      "gine": 3993,
      "ĠSUB": 3994,
      "Ġ19": 3995,
      "Ġsending": 3996,
      "ux": 3997,
      "ince": 3998,
      "ness": 3999,
      "ĠBase": 4000,
      "ĠTFL": 4001,
      "Ġdestination": 4002,
      "OptionsBuilder": 4003,
      "Ġgenerated": 4004,
      "Ġslot": 4005,
      "Ġempty": 4006,
      "SCEN": 4007,
      "HOLD": 4008,
      "BYTE": 4009,
      "Ġmz": 4010,
      "FILTER": 4011,
      "chan": 4012,
      "zero": 4013,
      "Ġrel": 4014,
      "ĠPrescal": 4015,
      "ĠCLKCTRL": 4016,
      "pms": 4017,
      "scillator": 4018,
      "urs": 4019,
      "Ġspeed": 4020,
      "URER": 4021,
      "wc": 4022,
      "MANUFACTURER": 4023,
      "cluding": 4024,
      "clock": 4025,
      "home": 4026,
      "glib": 4027,
      "SEQ": 4028,
      "glibcxx": 4029,
      "ĠBlock": 4030,
      "SLV": 4031,
      "lier": 4032,
      "ĠEBI": 4033,
      "Ġexpected": 4034,
      "sync": 4035,
      "Ġdouble": 4036,
      "bers": 4037,
      "Params": 4038,
      "Ġuntil": 4039,
      "array": 4040,
      "ECDSA": 4041,
      "ĠSDIO": 4042,
      "NEG": 4043,
      "ĠLength": 4044,
      "Ġderived": 4045,
      "VEP": 4046,
      "ORE": 4047,
      "impl": 4048,
      "URCE": 4049,
      "Ġcontent": 4050,
      "IZ": 4051,
      "micro": 4052,
      "Ġboot": 4053,
      "Ġsecurity": 4054,
      "dis": 4055,
      "ram": 4056,
      "Ġown": 4057,
      "ĠEnumType": 4058,
      "JSON": 4059,
      "WID": 4060,
      "Bits": 4061,
      "filter": 4062,
      "ĠPORTMUX": 4063,
      "xbd": 4064,
      "255": 4065,
      "SEQU": 4066,
      "The": 4067,
      "Ġgenerator": 4068,
      "pu": 4069,
      "79": 4070,
      "81": 4071,
      "Handler": 4072,
      "tected": 4073,
      "Ġmessages": 4074,
      "connectedhome": 4075,
      "connectedhomeip": 4076,
      "39": 4077,
      "Ġstorage": 4078,
      "MEMORY": 4079,
      "VP": 4080,
      "ZGP": 4081,
      "HW": 4082,
      "uart": 4083,
      "Ġmodify": 4084,
      "mount": 4085,
      "power": 4086,
      "pend": 4087,
      "FT": 4088,
      "ITS": 4089,
      "DESCR": 4090,
      "Ġdefinitions": 4091,
      "apping": 4092,
      "FLO": 4093,
      "timeout": 4094,
      "GPD": 4095,
      "gin": 4096,
      "Ġ31": 4097,
      "tt": 4098,
      "reater": 4099,
      "Ġdebug": 4100,
      "Ġpd": 4101,
      "operator": 4102,
      "Ġstandard": 4103,
      "ĠRuntimeShape": 4104,
      "htable": 4105,
      "AIN": 4106,
      "EAD": 4107,
      "ds": 4108,
      "Ġ====================================================": 4109,
      "eference": 4110,
      "entry": 4111,
      "hdr": 4112,
      "41": 4113,
      "ĠDFLL": 4114,
      "ores": 4115,
      "Ġdue": 4116,
      "DD": 4117,
      "ĠStruct": 4118,
      "400": 4119,
      "Ġattr": 4120,
      "auto": 4121,
      "ĠAVR": 4122,
      "âĶĢâĶĢ": 4123,
      "inal": 4124,
      "Ġmark": 4125,
      "Ġdown": 4126,
      "sleep": 4127,
      "UND": 4128,
      "MANAGEMENT": 4129,
      "Ġcondition": 4130,
      "46": 4131,
      "IST": 4132,
      "Ġlight": 4133,
      "HEADER": 4134,
      "iagn": 4135,
      "olution": 4136,
      "LEDC": 4137,
      "Ġ18": 4138,
      "mod": 4139,
      "Ġconstant": 4140,
      "STACK": 4141,
      "Ġinterval": 4142,
      "deprecated": 4143,
      "ĠHST": 4144,
      "Allocator": 4145,
      "Comm": 4146,
      "HDR": 4147,
      "known": 4148,
      "FRAME": 4149,
      "recv": 4150,
      "Output": 4151,
      "Ġtotal": 4152,
      "WIDTH": 4153,
      "ĠPeripheral": 4154,
      "oin": 4155,
      "Ġtransmit": 4156,
      "Ġpermitted": 4157,
      "UnPack": 4158,
      "ĠDIS": 4159,
      "ADD": 4160,
      "Use": 4161,
      "Ġretain": 4162,
      "EXPR": 4163,
      "BOOT": 4164,
      "Ġopt": 4165,
      "HEX": 4166,
      "BG": 4167,
      "sn": 4168,
      "tection": 4169,
      "DBG": 4170,
      "Ġslave": 4171,
      "ĠASSI": 4172,
      "ĠASSIST": 4173,
      "crement": 4174,
      "man": 4175,
      "onent": 4176,
      "Ġcompatibility": 4177,
      "ĠWatch": 4178,
      "itive": 4179,
      "hes": 4180,
      "mote": 4181,
      "other": 4182,
      "ĠModule": 4183,
      "ĠTIMER": 4184,
      "Ġefuse": 4185,
      "ĠPER": 4186,
      "FAILURE": 4187,
      "non": 4188,
      "ormal": 4189,
      "debug": 4190,
      "THERMO": 4191,
      "Sub": 4192,
      "Builtin": 4193,
      "ĠRem": 4194,
      "Ġdeter": 4195,
      "iter": 4196,
      "Ġcalcul": 4197,
      "ĠGeneric": 4198,
      "EMPTY": 4199,
      "ĠDO": 4200,
      "SOURCE": 4201,
      "ICES": 4202,
      "37": 4203,
      "Policy": 4204,
      "------------------------------------------------": 4205,
      "ĠSPEC": 4206,
      "DECLARE": 4207,
      "Ġmake": 4208,
      "Ġneeded": 4209,
      "OTA": 4210,
      "ĠINTERRUPT": 4211,
      "ĠSign": 4212,
      "THERMOSTAT": 4213,
      "ĠAUTH": 4214,
      "Array": 4215,
      "Ġmodification": 4216,
      "apped": 4217,
      "dims": 4218,
      "ĠĠĠĠĠĠĠĠĠĠĠĠĠĠĠĠĠĠĠĠĠĠĠĠĠĠĠĠĠĠĠĠĠĠĠĠĠĠĠĠĠĠĠĠĠĠĠĠĠĠ": 4219,
      "gthrw": 4220,
      "ĠMEM": 4221,
      "Ġallowed": 4222,
      "specific": 4223,
      "voke": 4224,
      "QUE": 4225,
      "ashtable": 4226,
      "PRESENT": 4227,
      "Ġexternal": 4228,
      "INFIFO": 4229,
      "Ġ128": 4230,
      "boot": 4231,
      "ĠCONTRIBUT": 4232,
      "ĠCONTRIBUTORS": 4233,
      "ĠĠĠĠĠĠĠĠĠĠĠĠĠĠĠĠĠĠĠĠĠĠĠĠĠĠĠĠĠĠĠĠĠĠĠĠĠĠĠĠĠĠĠĠĠĠĠĠĠĠĠ": 4234,
      "pair": 4235,
      "header": 4236,
      "Ġaccept": 4237,
      "ota": 4238,
      "PROV": 4239,
      "])": 4240,
      "ENTIAL": 4241,
      "clear": 4242,
      "WORK": 4243,
      "rv": 4244,
      "dog": 4245,
      "ually": 4246,
      "uous": 4247,
      "Ġdsps": 4248,
      "ĠSLC": 4249,
      "delta": 4250,
      "Ġeven": 4251,
      "Attributes": 4252,
      "ĠDo": 4253,
      "iagnost": 4254,
      "ĠDec": 4255,
      "ĠGO": 4256,
      "maph": 4257,
      "sure": 4258,
      "Ġsecond": 4259,
      "ARCH": 4260,
      "FROM": 4261,
      "Ġmutex": 4262,
      "EVER": 4263,
      ")~": 4264,
      "Ġ(*(": 4265,
      "doc": 4266,
      "vol": 4267,
      "Delegate": 4268,
      "icache": 4269,
      "ĠDelay": 4270,
      "SCR": 4271,
      "xffff": 4272,
      "<>": 4273,
      "Ġfr": 4274,
      "..*/": 4275,
      "xFFFFFFFFU": 4276,
      "ĠON": 4277,
      "Session": 4278,
      "84": 4279,
      "Ġprior": 4280,
      "assert": 4281,
      "PM": 4282,
      "ufact": 4283,
      "ĠDHCP": 4284,
      "AI": 4285,
      "Ġdecl": 4286,
      "PRESCALER": 4287,
      "Ġwr": 4288,
      "ulse": 4289,
      "Ġcomplete": 4290,
      "ĠFlash": 4291,
      "ensa": 4292,
      "YS": 4293,
      "oding": 4294,
      "emaph": 4295,
      "Ġallocator": 4296,
      "Manager": 4297,
      "ĠTIMG": 4298,
      "ection": 4299,
      "Ġencryption": 4300,
      "session": 4301,
      "bd": 4302,
      "AU": 4303,
      "rng": 4304,
      "ĠOverflow": 4305,
      "enes": 4306,
      "oved": 4307,
      "Network": 4308,
      "icient": 4309,
      "ĠInc": 4310,
      "ering": 4311,
      "ĠClient": 4312,
      "CLAIM": 4313,
      "ĠTWAI": 4314,
      "cpu": 4315,
      "etric": 4316,
      "iler": 4317,
      "):": 4318,
      "REPORT": 4319,
      "AMP": 4320,
      "ATER": 4321,
      "Ġfull": 4322,
      "ECTED": 4323,
      "Ġcertificate": 4324,
      "THRES": 4325,
      "endcond": 4326,
      "ooth": 4327,
      "USES": 4328,
      "ELE": 4329,
      "ALOG": 4330,
      "Ġtriggered": 4331,
      "bs": 4332,
      "OUTPUT": 4333,
      "ĠModel": 4334,
      "It": 4335,
      "Point": 4336,
      "bl": 4337,
      "RANGE": 4338,
      "prov": 4339,
      "LOOP": 4340,
      "REGI": 4341,
      "62": 4342,
      "aud": 4343,
      "IDF": 4344,
      "ĠVal": 4345,
      "PIP": 4346,
      "PEND": 4347,
      "ĠZigbee": 4348,
      "istic": 4349,
      "Ġshort": 4350,
      "setup": 4351,
      "52": 4352,
      "ĠxTask": 4353,
      "Ġinstruction": 4354,
      "Ġexplicit": 4355,
      "INTERRUPT": 4356,
      "Ġlar": 4357,
      "IDX": 4358,
      "Impl": 4359,
      "########": 4360,
      "WT": 4361,
      "secure": 4362,
      "Ġ================": 4363,
      "ump": 4364,
      "ceed": 4365,
      "ĠTCC": 4366,
      "Ġ17": 4367,
      "ĠRSA": 4368,
      "ĠAd": 4369,
      "REQU": 4370,
      "lite": 4371,
      "Ġfeature": 4372,
      "Code": 4373,
      "CONSTEXPR": 4374,
      "omatic": 4375,
      "Ġword": 4376,
      "medi": 4377,
      "ĠHT": 4378,
      "rect": 4379,
      "[]": 4380,
      "WE": 4381,
      "ĠBytes": 4382,
      "Ġabout": 4383,
      "Ġrequested": 4384,
      "FER": 4385,
      "GAM": 4386,
      "ENTAL": 4387,
      "abl": 4388,
      "ĠVoltage": 4389,
      "Log": 4390,
      "ĠETS": 4391,
      "ĠIF": 4392,
      "89": 4393,
      "IIC": 4394,
      "orted": 4395,
      "ISC": 4396,
      "Ġledc": 4397,
      "ĠParameter": 4398,
      "FEATURE": 4399,
      "system": 4400,
      "warning": 4401,
      "ASYNCCH": 4402,
      "Ġerase": 4403,
      "Ġfields": 4404,
      "zone": 4405,
      "afe": 4406,
      "54": 4407,
      "lobals": 4408,
      "Ġcons": 4409,
      "OUTFIFO": 4410,
      "ĠSh": 4411,
      "mbed": 4412,
      "prot": 4413,
      "BYTES": 4414,
      "rtc": 4415,
      "BUILTIN": 4416,
      "emaphore": 4417,
      "Ġrepresents": 4418,
      "ĠĠĠĠĠĠĠĠĠĠĠĠĠĠĠĠĠĠĠĠĠĠĠĠĠĠĠĠĠĠĠĠĠĠĠĠĠĠĠĠĠĠĠĠĠĠĠ": 4419,
      "Client": 4420,
      "Ġduty": 4421,
      "report": 4422,
      "ITOR": 4423,
      "ĠHOLD": 4424,
      "ĠIRQ": 4425,
      "ĠMin": 4426,
      "Ġbuil": 4427,
      "OAD": 4428,
      "BAT": 4429,
      "Rep": 4430,
      "SPLAY": 4431,
      "fe": 4432,
      "ĠLOSS": 4433,
      "path": 4434,
      "tensorflow": 4435,
      "ison": 4436,
      "antized": 4437,
      "SCHED": 4438,
      "ĠCallback": 4439,
      "ĠInvalid": 4440,
      "PROTO": 4441,
      "sig": 4442,
      "ĠAuthors": 4443,
      "RUN": 4444,
      "63": 4445,
      "=(": 4446,
      "ifference": 4447,
      "sizeof": 4448,
      "Ġreceiv": 4449,
      "fc": 4450,
      "ECTION": 4451,
      "DNS": 4452,
      "LCMP": 4453,
      "ENSOR": 4454,
      "ĠSPECIAL": 4455,
      "ĠSetting": 4456,
      "ALSE": 4457,
      "istent": 4458,
      "ĠCan": 4459,
      "FAILED": 4460,
      "ln": 4461,
      ")~_": 4462,
      "ĠSL": 4463,
      "Ġpresent": 4464,
      "strict": 4465,
      "MONITOR": 4466,
      "ĠDISCLAIM": 4467,
      "ALE": 4468,
      "most": 4469,
      "74": 4470,
      "58": 4471,
      "Ġagain": 4472,
      "alt": 4473,
      "Ġpair": 4474,
      "ĠPCR": 4475,
      "SENSITIVE": 4476,
      "ĠMemory": 4477,
      "FLOAT": 4478,
      "defgroup": 4479,
      "SEQUENTIAL": 4480,
      "ĠSub": 4481,
      "phy": 4482,
      "ĠINDIRECT": 4483,
      "Ġusage": 4484,
      "LIMIT": 4485,
      "WAH": 4486,
      "ĠxQueue": 4487,
      "Timed": 4488,
      "ĠExternal": 4489,
      "parse": 4490,
      "CTRLB": 4491,
      "VISI": 4492,
      "Ġeffect": 4493,
      "Test": 4494,
      "ĠHOLDER": 4495,
      "ĠCONSEQUENTIAL": 4496,
      "ergy": 4497,
      "ONG": 4498,
      "task": 4499,
      "FITS": 4500,
      "ĠPROFITS": 4501,
      "========================": 4502,
      "red": 4503,
      "ufactur": 4504,
      "HZ": 4505,
      "ging": 4506,
      "pa": 4507,
      "Ġdigital": 4508,
      "Sequence": 4509,
      "DELAY": 4510,
      "GAMMA": 4511,
      "ufacturer": 4512,
      "FFU": 4513,
      "Ġcalls": 4514,
      "Ġ256": 4515,
      "Ġ\"\\": 4516,
      "REGISTER": 4517,
      "Ġmatrix": 4518,
      "OSC": 4519,
      "crete": 4520,
      "STATS": 4521,
      "Ġopen": 4522,
      "Ġforms": 4523,
      "Rece": 4524,
      "seq": 4525,
      "OTG": 4526,
      "kip": 4527,
      "Ġmacros": 4528,
      "ressed": 4529,
      "Ġtimes": 4530,
      "ANALOG": 4531,
      "\")": 4532,
      "SDIO": 4533,
      "ctor": 4534,
      "raph": 4535,
      "CRYPT": 4536,
      "ĠDAMAGE": 4537,
      "rd": 4538,
      "BAD": 4539,
      "ĠSERV": 4540,
      "ĠRET": 4541,
      "Ġpri": 4542,
      "stop": 4543,
      "RMT": 4544,
      "MUXPOS": 4545,
      "ĠISR": 4546,
      "GLIGEN": 4547,
      "GLIGENCE": 4548,
      "51": 4549,
      "ĠDIRECT": 4550,
      "ATUR": 4551,
      "ĠNEGLIGENCE": 4552,
      "Ġshared": 4553,
      "ets": 4554,
      "cs": 4555,
      "Ġadded": 4556,
      "Ġproducts": 4557,
      "Ġrepro": 4558,
      "ĠEVEN": 4559,
      "ENSORFLOW": 4560,
      "elf": 4561,
      "ĠState": 4562,
      "76": 4563,
      "Ġphase": 4564,
      "izes": 4565,
      "Ġsy": 4566,
      "DISABLE": 4567,
      "Ġremote": 4568,
      "Ġsocket": 4569,
      "basic": 4570,
      "ifies": 4571,
      "Su": 4572,
      "cert": 4573,
      "amic": 4574,
      "BF": 4575,
      "ROLE": 4576,
      "Ġmaterials": 4577,
      "ĠOpenThread": 4578,
      "GRE": 4579,
      "ALARM": 4580,
      "shift": 4581,
      "Ġpossible": 4582,
      "Ġcould": 4583,
      "ynamic": 4584,
      "ublish": 4585,
      "ipaddr": 4586,
      "VISED": 4587,
      "ĠRAM": 4588,
      "Send": 4589,
      "ĠINCID": 4590,
      "ĠINCIDENTAL": 4591,
      "Ġux": 4592,
      "WK": 4593,
      "[__": 4594,
      ">,": 4595,
      "ĠRedistribution": 4596,
      "ume": 4597,
      "ĠADVISED": 4598,
      "SSIBILITY": 4599,
      "ĠPOSSIBILITY": 4600,
      "with": 4601,
      "ike": 4602,
      "ĠSUCH": 4603,
      "ĠĠĠĠĠĠĠĠĠĠĠĠĠĠĠĠĠĠĠĠĠĠĠĠĠĠĠĠĠĠĠĠĠĠĠĠĠĠĠĠĠĠĠĠĠĠĠĠĠĠĠĠ": 4604,
      "RAIter": 4605,
      "CCA": 4606,
      "]);": 4607,
      "rhs": 4608,
      "Ġsep": 4609,
      "anagement": 4610,
      "maker": 4611,
      "Ġsync": 4612,
      "STIT": 4613,
      "source": 4614,
      "POSIX": 4615,
      "IIter": 4616,
      "ĠTENSORFLOW": 4617,
      "ALIGN": 4618,
      "Ġ23": 4619,
      "Stream": 4620,
      "Ġexecut": 4621,
      "Ġvia": 4622,
      "POOL": 4623,
      "MICRO": 4624,
      "Ġcar": 4625,
      "STRING": 4626,
      "Ġendian": 4627,
      "ultiplier": 4628,
      "56": 4629,
      "Ġbegin": 4630,
      "thernet": 4631,
      "Ġos": 4632,
      "ĠOTA": 4633,
      "Ġreproduce": 4634,
      "riend": 4635,
      "WTC": 4636,
      "ope": 4637,
      "IFT": 4638,
      "endpoint": 4639,
      "===========================": 4640,
      "Ġ================================================================================================": 4641,
      "Ġpublished": 4642,
      "Ġ===========================================================================================================================": 4643,
      "AREA": 4644,
      "ĠHMAC": 4645,
      "cat": 4646,
      "ĠCache": 4647,
      "etooth": 4648,
      "luetooth": 4649,
      "omain": 4650,
      "ĠPrescaler": 4651,
      "Ġnames": 4652,
      "Ġupd": 4653,
      "ACCE": 4654,
      "ĠOnly": 4655,
      "ĠPROC": 4656,
      "DEF": 4657,
      "Ġref": 4658,
      "ained": 4659,
      "request": 4660,
      "LARY": 4661,
      "ough": 4662,
      "ired": 4663,
      "ĠSYS": 4664,
      "Ġdeterm": 4665,
      "PRINT": 4666,
      "STITUTE": 4667,
      "ĠReceive": 4668,
      "side": 4669,
      "ĠBoot": 4670,
      "DIUM": 4671,
      "null": 4672,
      "ĠINTERRUP": 4673,
      "roy": 4674,
      "ODS": 4675,
      "Ġuses": 4676,
      "Ġlater": 4677,
      "ĠFactor": 4678,
      "Ġheap": 4679,
      "Init": 4680,
      "maphore": 4681,
      "ĠField": 4682,
      "spif": 4683,
      "TABLE": 4684,
      "TICK": 4685,
      "ĠDISCLAIMED": 4686,
      "ĠARE": 4687,
      "85": 4688,
      "DIN": 4689,
      "FAC": 4690,
      "ĠSTRICT": 4691,
      "WIN": 4692,
      "Ġkeys": 4693,
      "103": 4694,
      "ĠSpec": 4695,
      "OWEVER": 4696,
      "ĠCAUSED": 4697,
      "DISPLAY": 4698,
      "Ġpackets": 4699,
      "HID": 4700,
      "ĠSynchronous": 4701,
      "ĠWAY": 4702,
      "println": 4703,
      "format": 4704,
      "ĠSERVICES": 4705,
      "INESS": 4706,
      "EMPLARY": 4707,
      "ĠSUBSTITUTE": 4708,
      "tent": 4709,
      "ĠTHEORY": 4710,
      "TG": 4711,
      "ĠBUSINESS": 4712,
      "ĠPROCUREMENT": 4713,
      "ĠINTERRUPTION": 4714,
      "SMALL": 4715,
      "ĠEXEMPLARY": 4716,
      "Ġdon": 4717,
      "iff": 4718,
      "ĠGOODS": 4719,
      "Ġscal": 4720,
      "Ġcompare": 4721,
      "DDR": 4722,
      "ĠOptional": 4723,
      "rf": 4724,
      "Ġencrypt": 4725,
      "overy": 4726,
      "Operation": 4727,
      "ĠCS": 4728,
      "Sp": 4729,
      "ĠHTTP": 4730,
      "2022": 4731,
      "CLKRST": 4732,
      "Ġcolor": 4733,
      "MSG": 4734,
      "Ġ22": 4735,
      "OPER": 4736,
      "ĠAction": 4737,
      "Ġbuffers": 4738,
      "ĠHOWEVER": 4739,
      "Ġmd": 4740,
      "ATTRIB": 4741,
      "ĠPCINT": 4742,
      "Ġwindow": 4743,
      "ĠCR": 4744,
      "ĠHandle": 4745,
      "FFF": 4746,
      "LETE": 4747,
      "()`": 4748,
      "Ġpreviously": 4749,
      "ĠReference": 4750,
      "ĠComparator": 4751,
      "Def": 4752,
      "ĠEE": 4753,
      "75": 4754,
      "Trans": 4755,
      "ĠParameters": 4756,
      "Ġsets": 4757,
      "oly": 4758,
      "MOVE": 4759,
      "ecp": 4760,
      "rmaker": 4761,
      "Debug": 4762,
      "Ġ=======================================================": 4763,
      "pad": 4764,
      "TIL": 4765,
      "UDF": 4766,
      "SIC": 4767,
      "VOL": 4768,
      "frame": 4769,
      "Ġdefines": 4770,
      "swap": 4771,
      "NING": 4772,
      "PAIR": 4773,
      "lhs": 4774,
      "Ġ30": 4775,
      "parallel": 4776,
      "gment": 4777,
      "command": 4778,
      "ĠCommands": 4779,
      "MULTI": 4780,
      "ĠTFLITE": 4781,
      "ĠFa": 4782,
      "ĠApplication": 4783,
      "Ġverifier": 4784,
      "UseTimed": 4785,
      "ĠSection": 4786,
      "WiFi": 4787,
      "SECTION": 4788,
      "ĠOscillator": 4789,
      "ai": 4790,
      "00000": 4791,
      "Ġauthent": 4792,
      "NMI": 4793,
      "hd": 4794,
      "using": 4795,
      "zdo": 4796,
      "Ġevents": 4797,
      "ĠMustUseTimed": 4798,
      "AUTH": 4799,
      "DPORT": 4800,
      "OPT": 4801,
      "number": 4802,
      "ze": 4803,
      "open": 4804,
      "stamp": 4805,
      "Ġsupp": 4806,
      "Ġdelete": 4807,
      "73": 4808,
      "ĠDiv": 4809,
      "igher": 4810,
      "Bytes": 4811,
      "pm": 4812,
      "Ġke": 4813,
      "attributes": 4814,
      "</": 4815,
      "antization": 4816,
      "SB": 4817,
      "RESULT": 4818,
      "EXCHANGE": 4819,
      "Ġcannot": 4820,
      "hid": 4821,
      "826": 4822,
      "dwc": 4823,
      "orse": 4824,
      "GDMA": 4825,
      "ability": 4826,
      "Ġstat": 4827,
      "Ġcommands": 4828,
      "ced": 4829,
      "DEFIN": 4830,
      "ĠMEMP": 4831,
      "CLASS": 4832,
      "BLK": 4833,
      "ĠWatchdog": 4834,
      "ĠSDK": 4835,
      "//----------------------------------------------------------------": 4836,
      "001": 4837,
      "PARSE": 4838,
      "66": 4839,
      "Ġautomatic": 4840,
      "SLCHOST": 4841,
      "Ġserial": 4842,
      "mostat": 4843,
      "ummy": 4844,
      "Ġpromote": 4845,
      "Service": 4846,
      "pub": 4847,
      "Ġendorse": 4848,
      "59": 4849,
      "SHIFT": 4850,
      "pass": 4851,
      "OFFSET": 4852,
      "GATT": 4853,
      "Ġmac": 4854,
      "Tick": 4855,
      "Ġunique": 4856,
      "SODIUM": 4857,
      "Ġdescrib": 4858,
      "JECT": 4859,
      "Out": 4860,
      "imd": 4861,
      "FREQ": 4862,
      "ENSA": 4863,
      "Ġextern": 4864,
      "ĠUSERROW": 4865,
      "DLY": 4866,
      "Ġdigest": 4867,
      "XXX": 4868,
      "Ġway": 4869,
      "QUEUE": 4870,
      "ĠDNS": 4871,
      "eek": 4872,
      "Ġcurrently": 4873,
      "ieee": 4874,
      "HST": 4875,
      "ERTOS": 4876,
      "CAM": 4877,
      "cap": 4878,
      "Ġdma": 4879,
      "itt": 4880,
      "FUSES": 4881,
      "CCB": 4882,
      "atomic": 4883,
      "Ġvoltage": 4884,
      "Reader": 4885,
      "refix": 4886,
      "ernel": 4887,
      "plat": 4888,
      "HASH": 4889,
      "Ġincluding": 4890,
      "Ġextr": 4891,
      "Ġimage": 4892,
      "ritical": 4893,
      "77": 4894,
      "Semaphore": 4895,
      "ĠNON": 4896,
      "Ġprofile": 4897,
      "ĠPACK": 4898,
      "DOWN": 4899,
      "Ġprovision": 4900,
      "REL": 4901,
      "PREC": 4902,
      "hav": 4903,
      "8266": 4904,
      "platform": 4905,
      "ĠNRF": 4906,
      "ĠDEV": 4907,
      "WAR": 4908,
      "lex": 4909,
      "Ġreader": 4910,
      "Ġvectors": 4911,
      "Ġhow": 4912,
      "ariant": 4913,
      "anced": 4914,
      "INK": 4915,
      "ĠSYSTEM": 4916,
      "Ġsince": 4917,
      "lying": 4918,
      ")));": 4919,
      "ĠOut": 4920,
      "Ġdoesn": 4921,
      "++)": 4922,
      "THAL": 4923,
      "vs": 4924,
      "ĠMatch": 4925,
      "stat": 4926,
      "Ġbr": 4927,
      "td": 4928,
      "opts": 4929,
      "Ġcle": 4930,
      "Ġwould": 4931,
      ">.": 4932,
      "IDR": 4933,
      "WWAH": 4934,
      "ĠMultiple": 4935,
      "ITCH": 4936,
      "ĠThese": 4937,
      "72": 4938,
      "GCM": 4939,
      "ever": 4940,
      "Paramet": 4941,
      "ittle": 4942,
      "53": 4943,
      "UPDATE": 4944,
      "Ġsmall": 4945,
      "ĠFreeRTOS": 4946,
      "Args": 4947,
      "wk": 4948,
      "ropy": 4949,
      "gistration": 4950,
      "ken": 4951,
      "Ġmost": 4952,
      "\\\\": 4953,
      "Ġbasic": 4954,
      "ĠTest": 4955,
      "Ġallows": 4956,
      "fifo": 4957,
      "ĠChar": 4958,
      "ĠUpdate": 4959,
      "erge": 4960,
      "Ġ26": 4961,
      "Ġbased": 4962,
      "xtensa": 4963,
      "Ġsnmp": 4964,
      "ĠEm": 4965,
      "Ġgran": 4966,
      "mcpwm": 4967,
      "ĠECD": 4968,
      "GREATER": 4969,
      "Ġtensor": 4970,
      "scan": 4971,
      "ĠInitialize": 4972,
      "XTAL": 4973,
      "ĠMUX": 4974,
      "Ġadvertising": 4975,
      "self": 4976,
      "Descriptor": 4977,
      "ively": 4978,
      "auth": 4979,
      "ĠMark": 4980,
      "avr": 4981,
      "Sl": 4982,
      "force": 4983,
      "condition": 4984,
      "Ġstarted": 4985,
      "Ġbuiltin": 4986,
      "FN": 4987,
      "TRG": 4988,
      "RandomAccess": 4989,
      "Ġcurve": 4990,
      "illi": 4991,
      "Ġcopies": 4992,
      "ignment": 4993,
      "simple": 4994,
      "Ġ##": 4995,
      "den": 4996,
      "target": 4997,
      "ERT": 4998,
      "Ġsecure": 4999,
      "Ġ28": 5000,
      "94": 5001,
      "ARI": 5002,
      "ĠException": 5003,
      "USAGE": 5004,
      "LLI": 5005,
      "mmetric": 5006,
      "ner": 5007,
      "ĠPORTB": 5008,
      "ĠMZ": 5009,
      "THAN": 5010,
      "Ġtoo": 5011,
      "Ġ27": 5012,
      "place": 5013,
      "0000003": 5014,
      "AUTO": 5015,
      "fr": 5016,
      "etime": 5017,
      "DOU": 5018,
      "BER": 5019,
      "ĠMbed": 5020,
      "ĠDebug": 5021,
      "ĠCor": 5022,
      "EVSEL": 5023,
      "enabled": 5024,
      "algorithm": 5025,
      "INSEL": 5026,
      "ml": 5027,
      "rier": 5028,
      "DIAG": 5029,
      "},": 5030,
      "signal": 5031,
      "eth": 5032,
      "INTERVAL": 5033,
      "quent": 5034,
      "ĠRFC": 5035,
      "RESPON": 5036,
      "GNU": 5037,
      "GAP": 5038,
      "Ġign": 5039,
      "DU": 5040,
      "Ġpurpose": 5041,
      "Revision": 5042,
      "DY": 5043,
      "DOUBLE": 5044,
      "SHORT": 5045,
      "acy": 5046,
      "cpy": 5047,
      "shake": 5048,
      "ĠQu": 5049,
      "va": 5050,
      "Byte": 5051,
      "rst": 5052,
      "rivile": 5053,
      "ASON": 5054,
      "OPTION": 5055,
      "Ġmesh": 5056,
      "DEPREC": 5057,
      "Ġcodes": 5058,
      "OU": 5059,
      "ĠNetwork": 5060,
      "Ġarguments": 5061,
      "Ġq": 5062,
      "0000001": 5063,
      "sing": 5064,
      "Ġ//!<": 5065,
      "access": 5066,
      "only": 5067,
      "Ġchannels": 5068,
      "RandomAccessIterator": 5069,
      "Ġthem": 5070,
      "ĠTrigger": 5071,
      "shared": 5072,
      "ches": 5073,
      "aead": 5074,
      "loop": 5075,
      "ĠDDR": 5076,
      "empor": 5077,
      "ĉĉĠ": 5078,
      "WD": 5079,
      "ATURES": 5080,
      "ĠMessage": 5081,
      "adata": 5082,
      "Ġbehav": 5083,
      "Ġ2015": 5084,
      "ored": 5085,
      "PF": 5086,
      "tain": 5087,
      "por": 5088,
      "ĠCF": 5089,
      "Ġattempt": 5090,
      "Ġble": 5091,
      "83": 5092,
      "Ġpadding": 5093,
      "ĠIndex": 5094,
      "DCACHE": 5095,
      "SCALE": 5096,
      "escription": 5097,
      "96": 5098,
      "STM": 5099,
      "wh": 5100,
      "andby": 5101,
      "71": 5102,
      "Ġjust": 5103,
      "Ġ|=": 5104,
      "ĠOther": 5105,
      "Ġfe": 5106,
      "touch": 5107,
      "Current": 5108,
      "grade": 5109,
      "Ġinv": 5110,
      "ormat": 5111,
      "EXCEPT": 5112,
      "APS": 5113,
      "Execution": 5114,
      "Flag": 5115,
      "CAR": 5116,
      "scale": 5117,
      "ĠLo": 5118,
      "Ġtrace": 5119,
      "UInt": 5120,
      "period": 5121,
      "xer": 5122,
      "ĠCM": 5123,
      "Cert": 5124,
      "Ġavoid": 5125,
      "acters": 5126,
      "evt": 5127,
      "XI": 5128,
      "rsa": 5129,
      "ges": 5130,
      "ather": 5131,
      "restrict": 5132,
      "Ġcause": 5133,
      "LIB": 5134,
      "spiflash": 5135,
      "NOEXCEPT": 5136,
      "pped": 5137,
      "Ġtak": 5138,
      "INF": 5139,
      "With": 5140,
      "Ġforce": 5141,
      "tributors": 5142,
      "PIOR": 5143,
      "VERIFY": 5144,
      "\";": 5145,
      "Ġcharacters": 5146,
      "DEPRECATED": 5147,
      "Ġ$": 5148,
      "unication": 5149,
      "ĠLL": 5150,
      "aries": 5151,
      "rie": 5152,
      "Ġrate": 5153,
      "Ġleft": 5154,
      "Ġcustom": 5155,
      "ĉĠĠĠĠĠĠ": 5156,
      "MODEM": 5157,
      "Ġ%%": 5158,
      "KERNEL": 5159,
      "ALLOW": 5160,
      "Ġtransition": 5161,
      "ĠSupport": 5162,
      "LEG": 5163,
      "efore": 5164,
      "SMEM": 5165,
      "CLUDE": 5166,
      "Ġremain": 5167,
      "Ġminimum": 5168,
      "CommandId": 5169,
      "ĠTPI": 5170,
      "pper": 5171,
      "Ġgo": 5172,
      "Ad": 5173,
      "Conv": 5174,
      "volatile": 5175,
      "Ġremoved": 5176,
      "25519": 5177,
      "ELECTR": 5178,
      "DRE": 5179,
      "aturation": 5180,
      "coded": 5181,
      "ĠNon": 5182,
      "alog": 5183,
      "ĠEthernet": 5184,
      "ĠSLCHOST": 5185,
      "wIP": 5186,
      "ached": 5187,
      "Ġuseful": 5188,
      "WEX": 5189,
      "__))": 5190,
      "ĠThread": 5191,
      "ESPACE": 5192,
      "ĠĠĠĠĠĠĠĠĠĠĠĠĠĠĠĠĠĠĠĠĠĠĠĠĠĠĠĠĠĠĠĠĠĠĠĠĠĠĠĠĠĠĠĠĠĠĠĠĠĠĠĠĠĠĠ": 5193,
      "ĠComplete": 5194,
      "just": 5195,
      "OB": 5196,
      "UST": 5197,
      "son": 5198,
      "verify": 5199,
      "KEN": 5200,
      "ĠLog": 5201,
      "ĠZGP": 5202,
      "QTT": 5203,
      "Ġerrors": 5204,
      "<::": 5205,
      "Ġinitialize": 5206,
      "Ġrmt": 5207,
      "Ġseconds": 5208,
      "freq": 5209,
      "BUSY": 5210,
      "Ġscene": 5211,
      "Ġrole": 5212,
      "STALL": 5213,
      "SECP": 5214,
      "Pin": 5215,
      "Ġreason": 5216,
      "rase": 5217,
      "ĠMacro": 5218,
      "ExecutionPolicy": 5219,
      "Ġtransport": 5220,
      "-------": 5221,
      "Ġconstruct": 5222,
      "ĠPTE": 5223,
      "very": 5224,
      "Ġrelease": 5225,
      "NAMESPACE": 5226,
      "ĠEEPROM": 5227,
      "ancel": 5228,
      "ĠCOM": 5229,
      "ĠSLEEP": 5230,
      "interrupt": 5231,
      "wdt": 5232,
      "tot": 5233,
      "ĠTask": 5234,
      "uit": 5235,
      "height": 5236,
      "ĠMPI": 5237,
      "matter": 5238,
      "Ġfixed": 5239,
      "Ġ...)": 5240,
      "Ġyet": 5241,
      "memory": 5242,
      "Ġfin": 5243,
      "ĠBT": 5244,
      "ĠVPORT": 5245,
      "ĠMO": 5246,
      "zgp": 5247,
      "egr": 5248,
      "ush": 5249,
      "Ġselection": 5250,
      "Ġ21": 5251,
      "Ġthey": 5252,
      "ĠIs": 5253,
      "CYCL": 5254,
      "LB": 5255,
      "HF": 5256,
      "Ġcreate": 5257,
      "CONT": 5258,
      "Dims": 5259,
      "macro": 5260,
      "ĠStablehlo": 5261,
      "SIMD": 5262,
      "Hash": 5263,
      "vr": 5264,
      "Ġselected": 5265,
      "Ġrunning": 5266,
      "forward": 5267,
      "ĠĠĠĠĠĠĠĠĠĠĠĠĠĠĠĠĠĠĠĠĠĠĠĠĠĠĠĠĠĠĠĠĠĠĠĠĠĠĠĠĠĠĠĠĠĠĠĠĠĠĠĠĠ": 5268,
      "Ġoverflow": 5269,
      "95": 5270,
      "mul": 5271,
      "Ġfault": 5272,
      "ĠVector": 5273,
      "ĠVirtual": 5274,
      "requires": 5275,
      "WUP": 5276,
      "ĠAccess": 5277,
      "ivity": 5278,
      "eader": 5279,
      "resses": 5280,
      "Star": 5281,
      "ASE": 5282,
      "XCHAL": 5283,
      "transport": 5284,
      "SOCK": 5285,
      "PB": 5286,
      "ĠLED": 5287,
      "pri": 5288,
      "ĠCommandId": 5289,
      "VC": 5290,
      "ĠECC": 5291,
      "Class": 5292,
      "endcode": 5293,
      "UTIL": 5294,
      "ĠOP": 5295,
      "ĠDMAC": 5296,
      "ADDRESS": 5297,
      "Ġgranted": 5298,
      "descriptor": 5299,
      "plit": 5300,
      "Ġreading": 5301,
      "round": 5302,
      "VD": 5303,
      "sensor": 5304,
      "unk": 5305,
      "rint": 5306,
      "ENTRY": 5307,
      "serted": 5308,
      "ADV": 5309,
      "AttributeId": 5310,
      "false": 5311,
      "Ġcontin": 5312,
      "FALSE": 5313,
      "args": 5314,
      "AA": 5315,
      "00000007": 5316,
      "TRUE": 5317,
      "ĠCom": 5318,
      "ĠCoreDebug": 5319,
      "Ġregistered": 5320,
      "Ġconnected": 5321,
      "87": 5322,
      "ĠWARRANTY": 5323,
      "Enabled": 5324,
      "Ġmaster": 5325,
      "Assert": 5326,
      "Ġlabel": 5327,
      "arison": 5328,
      "BACKUP": 5329,
      "Ġtermin": 5330,
      "dge": 5331,
      "Ġamount": 5332,
      "interface": 5333,
      "ENCE": 5334,
      "Ġauthor": 5335,
      "Free": 5336,
      "ĠHOLDERS": 5337,
      "_,": 5338,
      "Connect": 5339,
      "INC": 5340,
      "dp": 5341,
      "ĠDetection": 5342,
      "Measurement": 5343,
      "ĠPORTA": 5344,
      "iphers": 5345,
      "SF": 5346,
      "Ġ==========================================================": 5347,
      "go": 5348,
      "RESPONSE": 5349,
      "unique": 5350,
      "AMELLI": 5351,
      "AMELLIA": 5352,
      "DEX": 5353,
      "ĠĠĠĠĠĠĠĠĠĠĠĠĠĠĠĠĠĠĠĠĠĠĠĠĠĠĠĠĠĠĠĠĠĠĠĠĠĠĠĠĠĠĠĠĠĠĠĠĠĠĠĠĠĠ": 5354,
      "HMAC": 5355,
      "WAYS": 5356,
      "Ġchanged": 5357,
      "Ġless": 5358,
      "depth": 5359,
      "Ġwidth": 5360,
      "Ġdisc": 5361,
      "DEC": 5362,
      "ĠGetCommandId": 5363,
      "db": 5364,
      "hedul": 5365,
      "92": 5366,
      "0001": 5367,
      "Ġfabric": 5368,
      "Sec": 5369,
      "oken": 5370,
      "91": 5371,
      "CUST": 5372,
      "Ġsemaphore": 5373,
      "Wait": 5374,
      "fft": 5375,
      "ĠUnder": 5376,
      "GRA": 5377,
      "Ġsetup": 5378,
      "uid": 5379,
      "PKCS": 5380,
      "stdbool": 5381,
      "ĠPMS": 5382,
      "pred": 5383,
      "CUSTOM": 5384,
      "lush": 5385,
      "DHCP": 5386,
      "REQUEST": 5387,
      "easuredValue": 5388,
      "crease": 5389,
      "ĠGenerator": 5390,
      "iew": 5391,
      "CTSU": 5392,
      "DCHECK": 5393,
      "Ġindicate": 5394,
      "ĠUnityAssert": 5395,
      "find": 5396,
      "eric": 5397,
      "mary": 5398,
      "mu": 5399,
      "drv": 5400,
      "AV": 5401,
      "Ġextension": 5402,
      "ECDH": 5403,
      "LOCAL": 5404,
      "stant": 5405,
      "ifetime": 5406,
      "ĠkTfLite": 5407,
      "Ġlocation": 5408,
      "left": 5409,
      "INTMODE": 5410,
      "unused": 5411,
      "amples": 5412,
      "ĠMultiplexer": 5413,
      "togroup": 5414,
      "Generator": 5415,
      "Clear": 5416,
      "EXP": 5417,
      "ĠStructure": 5418,
      "aces": 5419,
      "Window": 5420,
      "ICU": 5421,
      "VL": 5422,
      "berA": 5423,
      "ĠĠĠĠĠĠĠĠĠĠĠĠĠĠĠĠĠĠĠĠĠĠĠĠĠĠĠĠĠĠĠĠĠĠĠĠĠĠĠĠĠĠĠĠĠĠĠĠĠĠĠĠĠĠĠĠĠ": 5424,
      "ntry": 5425,
      "partition": 5426,
      "ĠOne": 5427,
      "ML": 5428,
      "Ġprfl": 5429,
      "ĠTx": 5430,
      "ZONE": 5431,
      "SCL": 5432,
      "cpp": 5433,
      "stack": 5434,
      "Ġbig": 5435,
      "apb": 5436,
      "PG": 5437,
      "etch": 5438,
      "sem": 5439,
      "ĠISP": 5440,
      "uture": 5441,
      "Interface": 5442,
      "192": 5443,
      "GRADE": 5444,
      "Ġcaller": 5445,
      "Disable": 5446,
      "Ne": 5447,
      "Off": 5448,
      "FFS": 5449,
      "ulticast": 5450,
      "DEM": 5451,
      "Ġentries": 5452,
      "unnel": 5453,
      "ĠBegin": 5454,
      "REFSEL": 5455,
      "``": 5456,
      "AHB": 5457,
      "Ġmap": 5458,
      "ression": 5459,
      "Element": 5460,
      "Ġinternals": 5461,
      "ĠCFG": 5462,
      "Ġimmedi": 5463,
      "Ġupdated": 5464,
      "Ġrequires": 5465,
      "Ġroot": 5466,
      "ERATURE": 5467,
      "Ġaltcp": 5468,
      "ĠCOPYING": 5469,
      "Ġbound": 5470,
      "Ġ2021": 5471,
      "EGIN": 5472,
      "ppp": 5473,
      "WORDREGISTER": 5474,
      "MMC": 5475,
      "Ġcoap": 5476,
      "ĠAUTHOR": 5477,
      "ĠSec": 5478,
      "temp": 5479,
      "Ġdim": 5480,
      "Integer": 5481,
      "attery": 5482,
      "ier": 5483,
      "ĠFile": 5484,
      "ĠPIP": 5485,
      "Ġreceiving": 5486,
      "ĠCharacter": 5487,
      "reent": 5488,
      "pty": 5489,
      "Ġidentify": 5490,
      "ighb": 5491,
      "SPIFLASH": 5492,
      "1305": 5493,
      "ĠSYSTIMER": 5494,
      "PUB": 5495,
      "ĠDWT": 5496,
      "Ġtemperature": 5497,
      "step": 5498,
      "Ġinitialization": 5499,
      "Ġsuc": 5500,
      "RSP": 5501,
      "INTFLAGS": 5502,
      "high": 5503,
      "LCD": 5504,
      "ĠPLL": 5505,
      "IZE": 5506,
      "berAf": 5507,
      "stride": 5508,
      "ctl": 5509,
      "shot": 5510,
      "Ġallocate": 5511,
      "atures": 5512,
      "MPTION": 5513,
      "ĠController": 5514,
      "Ġ29": 5515,
      "apper": 5516,
      "ĠBuiltinOperator": 5517,
      "NETWORK": 5518,
      "[];": 5519,
      "osed": 5520,
      "UPGRADE": 5521,
      "CONSTRUCT": 5522,
      "Slice": 5523,
      "CHG": 5524,
      "equal": 5525,
      "ĠDCB": 5526,
      "URN": 5527,
      "Update": 5528,
      "Ġcard": 5529,
      "NL": 5530,
      "Ġaligned": 5531,
      "addtogroup": 5532,
      "Item": 5533,
      "ĠHost": 5534,
      "Ġrelated": 5535,
      "direct": 5536,
      "Parameters": 5537,
      "double": 5538,
      "ampl": 5539,
      "tended": 5540,
      "ĠReg": 5541,
      "objc": 5542,
      "CAMELLIA": 5543,
      "Ġidle": 5544,
      "coming": 5545,
      "caps": 5546,
      "Ġmsg": 5547,
      "FORMAT": 5548,
      "dir": 5549,
      "ately": 5550,
      "Ġpins": 5551,
      "Ġkeep": 5552,
      "BEGIN": 5553,
      "REASON": 5554,
      "ops": 5555,
      "VISIBLE": 5556,
      "8000": 5557,
      "ANA": 5558,
      "LIM": 5559,
      "lcd": 5560,
      "page": 5561,
      "Ġdevices": 5562,
      "RIER": 5563,
      "ĠSE": 5564,
      "umul": 5565,
      "loader": 5566,
      "BLIC": 5567,
      "Ġrepresentation": 5568,
      "slot": 5569,
      "ĠRST": 5570,
      "Ġ2020": 5571,
      "Hashtable": 5572,
      "WP": 5573,
      "PART": 5574,
      "Ġallocation": 5575,
      "ĠAWEX": 5576,
      "ording": 5577,
      "vfs": 5578,
      "ĠCCP": 5579,
      "oked": 5580,
      "RS": 5581,
      "STY": 5582,
      "ĠMD": 5583,
      "93": 5584,
      "57": 5585,
      "GB": 5586,
      "Ġ201103": 5587,
      "FOUND": 5588,
      "STYLE": 5589,
      "DOOR": 5590,
      "ĠTrue": 5591,
      "tract": 5592,
      "ISSION": 5593,
      "BOD": 5594,
      "attention": 5595,
      "ĠProject": 5596,
      "irectional": 5597,
      "UNDER": 5598,
      "Ġinterrupts": 5599,
      "Ġnever": 5600,
      "ACTION": 5601,
      "ĠRC": 5602,
      "Ġprovides": 5603,
      "TEMPERATURE": 5604,
      "Ġdirection": 5605,
      "Ġlp": 5606,
      "Ġcommon": 5607,
      "ci": 5608,
      "Ġdetermine": 5609,
      "ps": 5610,
      "lem": 5611,
      "Ġtransmission": 5612,
      "Predicate": 5613,
      "AGT": 5614,
      "idirectional": 5615,
      "MPU": 5616,
      "rivilege": 5617,
      "ampling": 5618,
      "Ġnotification": 5619,
      "ĠIdent": 5620,
      "TOKEN": 5621,
      "003": 5622,
      "ĠROM": 5623,
      "ENDI": 5624,
      "COMPLETE": 5625,
      "BaseType": 5626,
      "Ġ->": 5627,
      "Ġdelayed": 5628,
      "HAL": 5629,
      "OCR": 5630,
      "service": 5631,
      "Ġbelow": 5632,
      "Ġcpu": 5633,
      "ELECTRICAL": 5634,
      "eatureMap": 5635,
      "Lock": 5636,
      "EACH": 5637,
      "Ġlike": 5638,
      "Ġ/*!": 5639,
      "UMENT": 5640,
      "FromISR": 5641,
      "upied": 5642,
      "endar": 5643,
      "...)": 5644,
      "util": 5645,
      "Ġautomatically": 5646,
      "ĠDEVEP": 5647,
      "SECURE": 5648,
      "attern": 5649,
      "ĠDecodable": 5650,
      "xfe": 5651,
      "Ġevery": 5652,
      "kernel": 5653,
      "graph": 5654,
      "Ġnecess": 5655,
      "ĠIDF": 5656,
      "ities": 5657,
      "ĠDefin": 5658,
      "Ġplease": 5659,
      "Ġ2017": 5660,
      "SLOW": 5661,
      "PUBLIC": 5662,
      "ĠDataModel": 5663,
      "tpd": 5664,
      "ĠLink": 5665,
      "Union": 5666,
      "AttributeDirty": 5667,
      "ially": 5668,
      "fast": 5669,
      "encrypt": 5670,
      "ETS": 5671,
      "ĠmarkDirty": 5672,
      "match": 5673,
      "ĠTemperature": 5674,
      "Ġfind": 5675,
      "ĠMarkAttributeDirty": 5676,
      "CONSU": 5677,
      "1000": 5678,
      "Ġperson": 5679,
      "gpd": 5680,
      "Ġarea": 5681,
      "Ġticks": 5682,
      "PAYLOAD": 5683,
      "ren": 5684,
      "READY": 5685,
      "Ġcallbacks": 5686,
      "97": 5687,
      "ĠRUSB": 5688,
      "crt": 5689,
      "ISH": 5690,
      "batch": 5691,
      "ĠSNMP": 5692,
      "mbol": 5693,
      "Ġremove": 5694,
      "ĠTensor": 5695,
      "Ġenough": 5696,
      "CONSUMPTION": 5697,
      "ArgType": 5698,
      "ECDHE": 5699,
      "Num": 5700,
      "ĠMCU": 5701,
      "has": 5702,
      "Ġnow": 5703,
      "anged": 5704,
      "Verify": 5705,
      "ts": 5706,
      "ICATION": 5707,
      "System": 5708,
      "RXFIFO": 5709,
      "pendent": 5710,
      "Ġpan": 5711,
      "307": 5712,
      "Ġengine": 5713,
      "ĠNA": 5714,
      "hi": 5715,
      "Stack": 5716,
      "Ġstill": 5717,
      "ĠDecodableArgType": 5718,
      "Ġ((__": 5719,
      "ĠGetAttributeId": 5720,
      "ĠMustUseTimedWrite": 5721,
      "CAT": 5722,
      "Ġcorrect": 5723,
      "tim": 5724,
      "Ġmain": 5725,
      "ĠDescriptor": 5726,
      "ĠActive": 5727,
      "ources": 5728,
      "chn": 5729,
      "aInstance": 5730,
      "ĠPPI": 5731,
      ".,": 5732,
      "ĠTCE": 5733,
      "qui": 5734,
      "otInstance": 5735,
      "ĠAlloc": 5736,
      "OS": 5737,
      "illiseconds": 5738,
      "ĠaInstance": 5739,
      "sar": 5740,
      "KERNELS": 5741,
      "remove": 5742,
      "StreamBuffer": 5743,
      "XPD": 5744,
      "This": 5745,
      "cycle": 5746,
      "Ġ*);": 5747,
      "play": 5748,
      "olean": 5749,
      "emporary": 5750,
      "delay": 5751,
      "Ġac": 5752,
      "ASN": 5753,
      "Ġpartic": 5754,
      "ROW": 5755,
      "vider": 5756,
      "UC": 5757,
      "Ġdescription": 5758,
      "ANCE": 5759,
      "TUD": 5760,
      "/*****************************************************************************": 5761,
      "FIC": 5762,
      "024": 5763,
      "insert": 5764,
      "gatt": 5765,
      "ymmetric": 5766,
      "PIPI": 5767,
      "verted": 5768,
      "Ġitems": 5769,
      "ICS": 5770,
      "LOB": 5771,
      "ĠGPIOR": 5772,
      "ĠValid": 5773,
      "Ġterms": 5774,
      "PFS": 5775,
      "eff": 5776,
      "Ġduration": 5777,
      "Ġsubcl": 5778,
      "ograph": 5779,
      "ĠxTimer": 5780,
      "Ġlower": 5781,
      "pake": 5782,
      "800": 5783,
      "Range": 5784,
      "TDM": 5785,
      "ĠFrame": 5786,
      "mmc": 5787,
      "ming": 5788,
      "var": 5789,
      "ĠĠĠĠĠĠĠĠĠĠĠĠĠĠĠĠĠĠĠĠĠĠĠĠĠĠĠĠĠĠĠĠĠĠĠĠĠĠĠĠĠĠĠĠĠĠĠĠĠĠĠĠĠĠĠĠ": 5790,
      "Packet": 5791,
      "ĠCo": 5792,
      "ments": 5793,
      "Ġconsider": 5794,
      "second": 5795,
      "thers": 5796,
      "pointer": 5797,
      "Ġplace": 5798,
      "hmac": 5799,
      "ighbor": 5800,
      "Ġ*****************************************************************": 5801,
      "Np": 5802,
      "Timeout": 5803,
      "TZ": 5804,
      "ium": 5805,
      "dec": 5806,
      "ĠReceived": 5807,
      "Ġassert": 5808,
      "ute": 5809,
      "Ġcapture": 5810,
      "Ġdhcp": 5811,
      "ĠRepresent": 5812,
      "ĠSecurity": 5813,
      "##_": 5814,
      "adio": 5815,
      "ĠTCNT": 5816,
      "Ġinsert": 5817,
      "ranges": 5818,
      "Ġunderlying": 5819,
      "IPH": 5820,
      "Ġrespect": 5821,
      "ĠSTAT": 5822,
      "SENSOR": 5823,
      "quival": 5824,
      "Ġwakeup": 5825,
      "ĠSl": 5826,
      "ob": 5827,
      "Ġanother": 5828,
      "ĠlwIP": 5829,
      "LISTIFY": 5830,
      "ĠMAX": 5831,
      "Ms": 5832,
      "ĠConfigure": 5833,
      "485": 5834,
      "Ġlarge": 5835,
      "EXTER": 5836,
      "ĠFMT": 5837,
      "Len": 5838,
      "Storage": 5839,
      "Ġgenerate": 5840,
      "ĠRx": 5841,
      "PAYMENT": 5842,
      "Ġnor": 5843,
      "Ġintr": 5844,
      "pare": 5845,
      "ysTick": 5846,
      "estination": 5847,
      "FH": 5848,
      "ĠxSemaphore": 5849,
      "ffffff": 5850,
      "COVER": 5851,
      "DOC": 5852,
      "CLEAR": 5853,
      "ched": 5854,
      "ves": 5855,
      "acity": 5856,
      "Ġturn": 5857,
      "ĠSC": 5858,
      "visioner": 5859,
      "ĠGTI": 5860,
      "Ġsubclause": 5861,
      "GER": 5862,
      "ĠHe": 5863,
      "Ġ100": 5864,
      "lict": 5865,
      "sorted": 5866,
      "Ġacces": 5867,
      "heduler": 5868,
      "ĠPacket": 5869,
      "ĠGPL": 5870,
      "ĠAPS": 5871,
      "ĠSw": 5872,
      "Ġgeneration": 5873,
      "bind": 5874,
      "Ġtick": 5875,
      "thal": 5876,
      "ĠBFD": 5877,
      "CARRIER": 5878,
      "MUXNEG": 5879,
      "rain": 5880,
      "Ġsig": 5881,
      "Notify": 5882,
      "tainer": 5883,
      "ĠIndic": 5884,
      "Ġglobal": 5885,
      "cessor": 5886,
      "edCommandList": 5887,
      "COMMISSION": 5888,
      "*-": 5889,
      "aligned": 5890,
      "FREERTOS": 5891,
      "iagnostics": 5892,
      "PREV": 5893,
      "select": 5894,
      "Ġrespon": 5895,
      "Port": 5896,
      "rust": 5897,
      "ĠHRO": 5898,
      "Ġready": 5899,
      "ĠPIPE": 5900,
      "Ġversions": 5901,
      "ling": 5902,
      "RECV": 5903,
      "Ġssl": 5904,
      "LONG": 5905,
      "ior": 5906,
      "ĠInst": 5907,
      "price": 5908,
      "Ġshift": 5909,
      "Difference": 5910,
      "FINISH": 5911,
      "schedule": 5912,
      "Ġquery": 5913,
      "ulus": 5914,
      "//#": 5915,
      "ĠPmn": 5916,
      "Ġoccurre": 5917,
      "Ġconversion": 5918,
      "Ġgu": 5919,
      "ĠRepresents": 5920,
      "Version": 5921,
      "ĠPORTD": 5922,
      "160": 5923,
      "lper": 5924,
      "FILT": 5925,
      "Ġpending": 5926,
      "CLOCK": 5927,
      "ĠRange": 5928,
      "RM": 5929,
      "SCENE": 5930,
      "Ġetc": 5931,
      "AIL": 5932,
      "ARB": 5933,
      "Ġ-*-": 5934,
      "ĠAXI": 5935,
      "Ġslc": 5936,
      "Ġpcb": 5937,
      "TCA": 5938,
      "ily": 5939,
      "TRIGSRC": 5940,
      "commissioning": 5941,
      "RETURN": 5942,
      "uspend": 5943,
      "Ġignored": 5944,
      "nally": 5945,
      "odium": 5946,
      "224": 5947,
      "HO": 5948,
      "Ġcomput": 5949,
      "reference": 5950,
      "Ġmove": 5951,
      "Ġsche": 5952,
      "Ġmicro": 5953,
      "ordered": 5954,
      "inst": 5955,
      "ursive": 5956,
      "And": 5957,
      "ged": 5958,
      "ĠMicro": 5959,
      "Ġstores": 5960,
      "ĠDecode": 5961,
      "IEEE": 5962,
      "ĠProtobuf": 5963,
      "ĠDisabled": 5964,
      "gress": 5965,
      "******": 5966,
      "Ret": 5967,
      "cmp": 5968,
      "Ġchain": 5969,
      "ROUT": 5970,
      "ĠĠĠĠĠĠĠĠĠĠĠĠĠĠĠĠĠĠĠĠĠĠĠĠĠĠĠĠĠĠĠĠĠĠĠĠĠĠĠĠĠĠĠĠĠĠĠĠĠĠĠĠĠĠĠĠĠĠĠ": 5971,
      "returns": 5972,
      "Ġack": 5973,
      "DRBG": 5974,
      "counter": 5975,
      "RECOR": 5976,
      "detail": 5977,
      "EDGE": 5978,
      "BIG": 5979,
      "sv": 5980,
      "trace": 5981,
      "details": 5982,
      "Ġparticular": 5983,
      "LUT": 5984,
      "ĠCPUINT": 5985,
      "CANFD": 5986,
      "EVACT": 5987,
      "Flags": 5988,
      "vers": 5989,
      "UTEX": 5990,
      "Ġbatch": 5991,
      "MeasuredValue": 5992,
      "Op": 5993,
      "ĠBeginning": 5994,
      "Ġfuture": 5995,
      "ality": 5996,
      "----+": 5997,
      ")[": 5998,
      "izer": 5999,
      "ĠDOXYGEN": 6000,
      "Ġsettings": 6001,
      "WUPEN": 6002,
      "extended": 6003,
      "Ġru": 6004,
      "ropri": 6005,
      "ĠKEY": 6006,
      "ĠUSBC": 6007,
      "FP": 6008,
      "ĠPA": 6009,
      "SCT": 6010,
      "Ġpoints": 6011,
      "ton": 6012,
      "Serial": 6013,
      "Block": 6014,
      "HD": 6015,
      "MAKER": 6016,
      "idle": 6017,
      "uses": 6018,
      "000001": 6019,
      "UFI": 6020,
      "POLL": 6021,
      "ĠNVMCTRL": 6022,
      "LAB": 6023,
      "Ġalong": 6024,
      "cm": 6025,
      "quivalent": 6026,
      "true": 6027,
      "srv": 6028,
      "Ġload": 6029,
      "isr": 6030,
      "SEM": 6031,
      "FIF": 6032,
      "Ġoptional": 6033,
      "prev": 6034,
      "exp": 6035,
      "TCON": 6036,
      "ĠErase": 6037,
      "ICR": 6038,
      "Ġblocks": 6039,
      "VOLT": 6040,
      "SLOT": 6041,
      "SETUP": 6042,
      "ALWAYS": 6043,
      "Ġholding": 6044,
      "ENDIAN": 6045,
      "DEN": 6046,
      "GAT": 6047,
      "Ġendif": 6048,
      "INTENSET": 6049,
      "ĠWhether": 6050,
      "TOHOST": 6051,
      "ĠService": 6052,
      "finish": 6053,
      "TCR": 6054,
      "PROD": 6055,
      "ĠRow": 6056,
      "constant": 6057,
      "hanced": 6058,
      "OMIC": 6059,
      "MM": 6060,
      "Power": 6061,
      "object": 6062,
      "Ġio": 6063,
      "ĠDefinitions": 6064,
      "GNUC": 6065,
      "Ġsigned": 6066,
      "edium": 6067,
      "pool": 6068,
      "ĠConfigures": 6069,
      "PID": 6070,
      "ĠISO": 6071,
      "LABEL": 6072,
      "SCHEDULE": 6073,
      "Red": 6074,
      "ĠRate": 6075,
      "Ġtheir": 6076,
      "NAK": 6077,
      "qtt": 6078,
      "Ġ(\"": 6079,
      "dhcp": 6080,
      "irc": 6081,
      "Ġdescribed": 6082,
      "SERV": 6083,
      "speed": 6084,
      "stabl": 6085,
      "gle": 6086,
      "Act": 6087,
      "random": 6088,
      "SYNCCH": 6089,
      "ĠInit": 6090,
      "//--------------------------------------------------------------------+": 6091,
      "DAY": 6092,
      "any": 6093,
      "ĠReceiver": 6094,
      "Ġmonitor": 6095,
      "bi": 6096,
      "HTTP": 6097,
      "join": 6098,
      "oped": 6099,
      "PHA": 6100,
      "ĉĉĠĠĠ": 6101,
      "Ġsubject": 6102,
      "ropriate": 6103,
      "IRQn": 6104,
      "ĠLOCK": 6105,
      "CRIT": 6106,
      "Ġprovisioning": 6107,
      "ĠMet": 6108,
      "Ġkernel": 6109,
      "package": 6110,
      "MUTEX": 6111,
      "ane": 6112,
      "DISC": 6113,
      "TLVReader": 6114,
      "FUN": 6115,
      "Bitmap": 6116,
      "ĠSets": 6117,
      "ATCH": 6118,
      "ANY": 6119,
      "neg": 6120,
      "TCB": 6121,
      "Ġcleared": 6122,
      "ORDER": 6123,
      "FREE": 6124,
      "section": 6125,
      "hz": 6126,
      "Ġspecification": 6127,
      "dition": 6128,
      "Ġnecessary": 6129,
      "ACCEL": 6130,
      "Ġwar": 6131,
      "ĠXTENSA": 6132,
      "SUS": 6133,
      "684": 6134,
      "ĠWO": 6135,
      "IOUS": 6136,
      "ĠSensor": 6137,
      "reserved": 6138,
      "PMU": 6139,
      "ĠEP": 6140,
      "pi": 6141,
      "ĠEN": 6142,
      "INCLU": 6143,
      "ĠPos": 6144,
      "FIX": 6145,
      "**********": 6146,
      "MCU": 6147,
      "Ġmember": 6148,
      "dimension": 6149,
      "UDP": 6150,
      "ĠIV": 6151,
      "cket": 6152,
      "STOR": 6153,
      "ĠTOD": 6154,
      "CRB": 6155,
      "heap": 6156,
      "ifiers": 6157,
      "ĠFilter": 6158,
      "Ġ&=": 6159,
      "Label": 6160,
      "INTENCLR": 6161,
      "ĠĠĠĠĠĠĠĠĠĠĠĠĠĠĠĠĠĠĠĠĠĠĠĠĠĠĠĠĠĠĠĠĠĠĠĠĠĠĠĠĠĠĠĠĠĠĠĠĠĠĠĠĠĠĠĠĠĠĠĠĠĠĠĠĠĠ": 6162,
      "MODULE": 6163,
      "policy": 6164,
      "ĠEncode": 6165,
      "antize": 6166,
      "Ġmeasurement": 6167,
      "Commissioning": 6168,
      "ĠCT": 6169,
      "ear": 6170,
      "Ġhttps": 6171,
      "BASIC": 6172,
      "ild": 6173,
      "SIGNATURES": 6174,
      "_(_": 6175,
      "OCPU": 6176,
      "rece": 6177,
      "____": 6178,
      "Ġextended": 6179,
      "MED": 6180,
      "Ġpv": 6181,
      "EndTable": 6182,
      "GMEM": 6183,
      "older": 6184,
      "Ġcompiler": 6185,
      "udio": 6186,
      "Ġpulse": 6187,
      "ically": 6188,
      "Ġmight": 6189,
      "ĠECDSA": 6190,
      "window": 6191,
      "xfc": 6192,
      "xfifo": 6193,
      "extension": 6194,
      "instance": 6195,
      "SIGNAL": 6196,
      "RB": 6197,
      "ENDPOINT": 6198,
      "ĠGTIOC": 6199,
      "hf": 6200,
      "2021": 6201,
      "Ġtu": 6202,
      "gcc": 6203,
      "Ptr": 6204,
      "Ġcomb": 6205,
      "allocate": 6206,
      "ĠRights": 6207,
      "OPC": 6208,
      "case": 6209,
      "ĠTODO": 6210,
      "eof": 6211,
      "ĠZone": 6212,
      "ĠCode": 6213,
      "PAKE": 6214,
      "cor": 6215,
      "Ġlfs": 6216,
      "FB": 6217,
      "dsps": 6218,
      "ecd": 6219,
      "Seg": 6220,
      "scrib": 6221,
      "network": 6222,
      "',": 6223,
      "USH": 6224,
      "Ġensure": 6225,
      "HL": 6226,
      ">)": 6227,
      "SMODE": 6228,
      "ĠColor": 6229,
      "resh": 6230,
      "Segment": 6231,
      "Software": 6232,
      "Ġfinished": 6233,
      "INLINK": 6234,
      "ĠBR": 6235,
      "OutputIterator": 6236,
      "BitMask": 6237,
      "label": 6238,
      "Ġul": 6239,
      "ĠList": 6240,
      "Ġlittle": 6241,
      "kernels": 6242,
      "Ġdefinition": 6243,
      "EQ": 6244,
      "Ġencrypted": 6245,
      "CIE": 6246,
      "ĠSignal": 6247,
      "tl": 6248,
      "sive": 6249,
      "ĠUsed": 6250,
      "ĠSecure": 6251,
      "BIN": 6252,
      "Core": 6253,
      "PKT": 6254,
      "tw": 6255,
      "PREVIOUS": 6256,
      "response": 6257,
      "Ġincrement": 6258,
      "WG": 6259,
      "ARGUMENT": 6260,
      "Ġschedule": 6261,
      "HAS": 6262,
      "Wifi": 6263,
      "Alarm": 6264,
      "PARAM": 6265,
      "PRIOR": 6266,
      "Ġiv": 6267,
      "Ġcrc": 6268,
      "abort": 6269,
      "sample": 6270,
      "Ġorig": 6271,
      "DMAC": 6272,
      "tocomm": 6273,
      "ĠEmpty": 6274,
      "2532": 6275,
      "ĠNode": 6276,
      "HAND": 6277,
      "RELOC": 6278,
      "PEG": 6279,
      "Ġgeneric": 6280,
      "Ġskip": 6281,
      "Ġciphers": 6282,
      "Ġmulti": 6283,
      "WARNING": 6284,
      "307684": 6285,
      "3076842532": 6286,
      "Ġresults": 6287,
      "Ġ----------------": 6288,
      "__(": 6289,
      "Provider": 6290,
      "ĠMHz": 6291,
      "ircuit": 6292,
      "df": 6293,
      "SDA": 6294,
      "ĉĉĉĉĉ": 6295,
      "Ġdivide": 6296,
      "POR": 6297,
      "Registration": 6298,
      "OUTL": 6299,
      "OUTLINK": 6300,
      "APBPERI": 6301,
      "Ġ),": 6302,
      "ĠCMP": 6303,
      "libr": 6304,
      "ĠFault": 6305,
      "ĠUDP": 6306,
      "Active": 6307,
      "INDEX": 6308,
      "interval": 6309,
      "SWITCH": 6310,
      "Object": 6311,
      "rmt": 6312,
      "FabricIndex": 6313,
      "duty": 6314,
      "PARA": 6315,
      "ryptograph": 6316,
      "Ġsucceed": 6317,
      "ĠIndicate": 6318,
      "AE": 6319,
      "ae": 6320,
      "Ġhandshake": 6321,
      "ĠStandby": 6322,
      "SCENES": 6323,
      "ĠERR": 6324,
      "xfa": 6325,
      "002": 6326,
      "OLOAD": 6327,
      "ZER": 6328,
      "Ġfriend": 6329,
      "DED": 6330,
      "SPE": 6331,
      "Ġwarran": 6332,
      "atedCommandList": 6333,
      "cceptedCommandList": 6334,
      "Ġredistribut": 6335,
      "Ġwhat": 6336,
      "Ġimplemented": 6337,
      "Ġretrie": 6338,
      "bg": 6339,
      "LVD": 6340,
      "IMP": 6341,
      "Ġbu": 6342,
      "ank": 6343,
      "ĠLoc": 6344,
      "loor": 6345,
      "Ġchanges": 6346,
      "zip": 6347,
      "INGS": 6348,
      "Ġaddresses": 6349,
      "Ġzcl": 6350,
      "Ġreal": 6351,
      "ĠTOUCH": 6352,
      "Ġcompleted": 6353,
      "Ġ++__": 6354,
      "VOLTAGE": 6355,
      "Ġwell": 6356,
      "SMALLER": 6357,
      "ĠChange": 6358,
      "Connection": 6359,
      "periph": 6360,
      "tings": 6361,
      "------------": 6362,
      "Ġsupports": 6363,
      "AUTOLOAD": 6364,
      "Flow": 6365,
      "scr": 6366,
      "Ġauthentication": 6367,
      "GAIN": 6368,
      "ĠGTC": 6369,
      "ansi": 6370,
      "ĠAU": 6371,
      "Ġfil": 6372,
      "Ġnonce": 6373,
      "COMMISSIONING": 6374,
      "DRV": 6375,
      "ĠSlave": 6376,
      "Ġindicating": 6377,
      "Ġbuild": 6378,
      "ysical": 6379,
      "call": 6380,
      "trigger": 6381,
      "Ġinvert": 6382,
      "ĠUp": 6383,
      "ĠĠĠĠĠĠĠĠĠĠĠĠĠĠĠĠĠĠĠĠĠĠĠĠĠĠĠĠĠĠĠĠĠĠĠĠĠĠĠĠĠĠĠĠĠĠĠĠĠĠĠĠĠĠĠĠĠĠĠĠĠĠĠĠĠ": 6384,
      "Resp": 6385,
      "mult": 6386,
      "If": 6387,
      "losed": 6388,
      "CHNG": 6389,
      "uce": 6390,
      "ĠCycle": 6391,
      "CDC": 6392,
      "Result": 6393,
      "Ġitself": 6394,
      "ĠSleep": 6395,
      "Ġthrow": 6396,
      "Ġalarm": 6397,
      ".)": 6398,
      "CCC": 6399,
      "EnumValue": 6400,
      "ĠUnPack": 6401,
      "stddef": 6402,
      "Ġrecomm": 6403,
      "ixel": 6404,
      "nowled": 6405,
      "ĠCMD": 6406,
      "Ġheaders": 6407,
      "Ġequivalent": 6408,
      "Unknown": 6409,
      "PDM": 6410,
      "TRY": 6411,
      "record": 6412,
      "Ġroutine": 6413,
      "eform": 6414,
      "IBUS": 6415,
      "Ġtop": 6416,
      "ĠVREF": 6417,
      "ativeTable": 6418,
      "ĠSYSCON": 6419,
      "GCC": 6420,
      "Less": 6421,
      "ICache": 6422,
      "ĠMapping": 6423,
      "ĠMesh": 6424,
      "LISH": 6425,
      "aveform": 6426,
      "PCNT": 6427,
      "ĠUnPackTo": 6428,
      "padding": 6429,
      "ĠXCL": 6430,
      "MATCH": 6431,
      "PAN": 6432,
      "COMPI": 6433,
      "Ġ48": 6434,
      "OTAL": 6435,
      "Ġinputs": 6436,
      "Ġ2022": 6437,
      "SG": 6438,
      "TIFY": 6439,
      "Ġpointers": 6440,
      "Space": 6441,
      "Buf": 6442,
      "hing": 6443,
      "jor": 6444,
      "Ġinternally": 6445,
      "ĠChip": 6446,
      "poly": 6447,
      "ĠFPU": 6448,
      "Ġincoming": 6449,
      "oolean": 6450,
      "Ġwarranty": 6451,
      "Ġreverse": 6452,
      "aced": 6453,
      "ĠAPIs": 6454,
      "ĠCMSIS": 6455,
      "adv": 6456,
      "Ġ^": 6457,
      "COMPA": 6458,
      "xfb": 6459,
      "lf": 6460,
      "Ġoccurs": 6461,
      "Ġ--------------------------------": 6462,
      "Ġaccording": 6463,
      "ĠemberAf": 6464,
      "ĠITM": 6465,
      "nwk": 6466,
      "TXFIFO": 6467,
      "<__": 6468,
      "fre": 6469,
      "ĠDigital": 6470,
      "Ġcommissioning": 6471,
      "ĠByteSpan": 6472,
      "ĠExample": 6473,
      "Ġsegment": 6474,
      "Exp": 6475,
      "scene": 6476,
      "Ġfrag": 6477,
      ")\\": 6478,
      "ĠEL": 6479,
      "MACR": 6480,
      "2024": 6481,
      "poll": 6482,
      "Static": 6483,
      "packed": 6484,
      "ully": 6485,
      "ĠFF": 6486,
      "Operational": 6487,
      "ĠAUDIO": 6488,
      "Ġexception": 6489,
      "Ġtud": 6490,
      "imbs": 6491,
      "(&(": 6492,
      "ĠQueue": 6493,
      "Ġstride": 6494,
      "apshot": 6495,
      "Ġmodified": 6496,
      "ĠMaster": 6497,
      "ateg": 6498,
      "ĠPerform": 6499,
      "Ġappropriate": 6500,
      "ailbox": 6501,
      "RN": 6502,
      "RMAKER": 6503,
      "ĠRemove": 6504,
      "MMU": 6505,
      "aa": 6506,
      "IDE": 6507,
      "CCM": 6508,
      "Clock": 6509,
      "REST": 6510,
      "STA": 6511,
      "Ġsignals": 6512,
      "ĠAny": 6513,
      "KN": 6514,
      "DEFINE": 6515,
      "close": 6516,
      "Ġtext": 6517,
      "ĠXTHAL": 6518,
      "AttributePath": 6519,
      "ĠRF": 6520,
      "ĠScene": 6521,
      "Ġmultip": 6522,
      "EXCEP": 6523,
      "ĠĠĠĠĠĠĠĠĠĠĠĠĠĠĠĠĠĠĠĠĠĠĠĠĠĠĠĠĠĠĠĠĠĠĠĠĠĠĠĠĠĠĠĠĠĠĠĠĠĠĠĠĠĠĠĠĠĠ": 6524,
      "destroy": 6525,
      "endian": 6526,
      "verage": 6527,
      "Ġtake": 6528,
      "switch": 6529,
      "Ġimmediately": 6530,
      "uoffset": 6531,
      "ĠDirection": 6532,
      "Period": 6533,
      "align": 6534,
      "ĠSysTick": 6535,
      "Pad": 6536,
      "Action": 6537,
      "pending": 6538,
      "Ġsim": 6539,
      "elm": 6540,
      "Channel": 6541,
      "sole": 6542,
      "values": 6543,
      "Ġaddressing": 6544,
      "Ġsecret": 6545,
      "ĠGT": 6546,
      "096": 6547,
      "dentials": 6548,
      "Source": 6549,
      "Raw": 6550,
      "========================================================================": 6551,
      "Woken": 6552,
      "@}": 6553,
      "EA": 6554,
      "poration": 6555,
      "Ġentropy": 6556,
      "/*************************************************************************************************": 6557,
      "ĠCorporation": 6558,
      "_);": 6559,
      "WITHIN": 6560,
      "ĠFrequency": 6561,
      "ĠNeg": 6562,
      "ĠArg": 6563,
      "NOR": 6564,
      "hue": 6565,
      "coap": 6566,
      "PWM": 6567,
      "INO": 6568,
      "compare": 6569,
      "Ġoptim": 6570,
      "=>": 6571,
      "Ġmon": 6572,
      "delete": 6573,
      "Ġdeprecated": 6574,
      "WRAP": 6575,
      "Ġwere": 6576,
      "CRITICAL": 6577,
      "acon": 6578,
      "Ġintegr": 6579,
      "spl": 6580,
      "gorithms": 6581,
      "Ġside": 6582,
      "Ġnl": 6583,
      "Pointer": 6584,
      "unlock": 6585,
      "item": 6586,
      "ENTH": 6587,
      "defs": 6588,
      "Ġbehavior": 6589,
      "dt": 6590,
      "Ġreadable": 6591,
      "Ġdecryption": 6592,
      "NOST": 6593,
      "Ġpassword": 6594,
      "ĠAss": 6595,
      "ca": 6596,
      "WC": 6597,
      "Ġflow": 6598,
      "Ġconvert": 6599,
      "Ġdes": 6600,
      "Float": 6601,
      "ipe": 6602,
      "TLVWriter": 6603,
      "ENTHREAD": 6604,
      "ĠPh": 6605,
      "limits": 6606,
      "Ġencoding": 6607,
      "Ġoccurred": 6608,
      "WGMODE": 6609,
      "Ġredistribute": 6610,
      "Greater": 6611,
      "image": 6612,
      "role": 6613,
      "NUMBER": 6614,
      "going": 6615,
      "ĠTransaction": 6616,
      "Ġspecial": 6617,
      "Ġphy": 6618,
      "Ġothers": 6619,
      "REPE": 6620,
      "tiny": 6621,
      "Ġsample": 6622,
      "ĠĠĠĠĠĠĠĠĠĠĠĠĠĠĠĠĠĠĠĠĠĠĠĠĠĠĠĠĠĠĠĠĠĠĠĠĠĠĠĠĠĠĠĠĠĠĠĠĠĠĠĠĠĠĠĠĠĠĠĠ": 6623,
      "wakeup": 6624,
      "dependent": 6625,
      "ĠIndicates": 6626,
      "Ġprocessing": 6627,
      "ĠAHB": 6628,
      "serial": 6629,
      "TOO": 6630,
      "-----------": 6631,
      "Ġnrf": 6632,
      "Ġpk": 6633,
      "PRIORITY": 6634,
      "Ġhapp": 6635,
      "EXIT": 6636,
      "Ġdynamic": 6637,
      "PWR": 6638,
      "achine": 6639,
      "ĠParse": 6640,
      "istics": 6641,
      "CONTROLLER": 6642,
      "decl": 6643,
      "DTLS": 6644,
      "Ġhope": 6645,
      "Ġgreater": 6646,
      "Ġtiming": 6647,
      "ĠIter": 6648,
      "TERY": 6649,
      "Binary": 6650,
      "Globals": 6651,
      "BATTERY": 6652,
      "BLED": 6653,
      "MPI": 6654,
      "ENTION": 6655,
      "TOP": 6656,
      "FACI": 6657,
      "ĠETH": 6658,
      "DHE": 6659,
      "2023": 6660,
      "Layer": 6661,
      "GTHREAD": 6662,
      "GL": 6663,
      "ĠDestination": 6664,
      "COUNTER": 6665,
      "management": 6666,
      "security": 6667,
      "ĠSPIFFS": 6668,
      "ĠPK": 6669,
      "fail": 6670,
      "Ġpthread": 6671,
      ")),": 6672,
      "Ġ512": 6673,
      "ategory": 6674,
      "NWK": 6675,
      "tion": 6676,
      "Ġpublish": 6677,
      "abil": 6678,
      "aging": 6679,
      "DOUT": 6680,
      "ĠWait": 6681,
      "ĠNeither": 6682,
      "TCONN": 6683,
      "Ġcritical": 6684,
      "ĠDescription": 6685,
      "ĠĠĠĠĠĠĠĠĠĠĠĠĠĠĠĠĠĠĠĠĠĠĠĠĠĠĠĠĠĠĠĠĠĠĠĠĠĠĠĠĠĠĠĠĠĠĠĠĠĠĠĠĠĠĠĠĠĠĠĠĠĠĠĠĠĠĠĠ": 6686,
      "secret": 6687,
      "IES": 6688,
      "ARP": 6689,
      "ĠBaseType": 6690,
      "Ġinside": 6691,
      "multiplier": 6692,
      "ĠThere": 6693,
      "Ġsafe": 6694,
      "ĠAfter": 6695,
      "Ġdomain": 6696,
      "CORR": 6697,
      "ĠSR": 6698,
      "ĠGlobals": 6699,
      "Rec": 6700,
      "GPDF": 6701,
      "Lo": 6702,
      "AUDIO": 6703,
      "EXCEPTION": 6704,
      "ĠComput": 6705,
      "Ver": 6706,
      "ĠAuthor": 6707,
      "mid": 6708,
      "Receive": 6709,
      "KDF": 6710,
      "digest": 6711,
      "Ġmilliseconds": 6712,
      "Report": 6713,
      "Ġmany": 6714,
      "aque": 6715,
      "Ġnetconn": 6716,
      "module": 6717,
      "Ġunused": 6718,
      "profile": 6719,
      "Ġsearch": 6720,
      "Ġlonger": 6721,
      "Next": 6722,
      "Ġconsum": 6723,
      "ufficient": 6724,
      "Exchange": 6725,
      "lc": 6726,
      "Ġcontents": 6727,
      "STORE": 6728,
      "GHZ": 6729,
      "Ġpool": 6730,
      "Ġknown": 6731,
      "metering": 6732,
      "Ġadv": 6733,
      "Ġbackward": 6734,
      "OPERATION": 6735,
      "alarm": 6736,
      "ĠConnection": 6737,
      "fa": 6738,
      "valu": 6739,
      "main": 6740,
      "OCC": 6741,
      "ĠĠĠĠĠĠĠĠĠĠĠĠĠĠĠĠĠĠĠĠĠĠĠĠĠĠĠĠĠĠĠĠĠĠĠĠĠĠĠĠĠĠĠĠĠĠĠĠĠĠĠĠĠĠĠĠĠĠĠĠĠĠĠĠĠĠĠ": 6742,
      "Ġarch": 6743,
      "âĶĢâĶĢâĶĢâĶĢ": 6744,
      "ZERO": 6745,
      "Ġfd": 6746,
      "reason": 6747,
      "SIST": 6748,
      "ENDOR": 6749,
      "OVERFLOW": 6750,
      "ĠLoad": 6751,
      "URATION": 6752,
      "////////////////////////////////": 6753,
      "leted": 6754,
      "Ġgetting": 6755,
      "SCB": 6756,
      "Ġnam": 6757,
      "rp": 6758,
      "seed": 6759,
      "ĠTick": 6760,
      "Entry": 6761,
      "Ġavr": 6762,
      "mz": 6763,
      "ĠASN": 6764,
      "SEG": 6765,
      "MHz": 6766,
      "Ġcontributors": 6767,
      "Ġ2019": 6768,
      "ĠVB": 6769,
      ")((": 6770,
      "UD": 6771,
      "INTCTRL": 6772,
      "DEVEP": 6773,
      "ĠProtocol": 6774,
      "HTT": 6775,
      "bound": 6776,
      "proxy": 6777,
      "UMM": 6778,
      "gap": 6779,
      "Ġnvs": 6780,
      "ĠTF": 6781,
      "ĠRegion": 6782,
      "Ġspecify": 6783,
      "ĠcJSON": 6784,
      "panel": 6785,
      "NVIC": 6786,
      "Ġrespectively": 6787,
      "Ġlifetime": 6788,
      "TaskWoken": 6789,
      "ynchronization": 6790,
      "PROXY": 6791,
      "TIFIC": 6792,
      "ĠDetect": 6793,
      "ĠPB": 6794,
      "ATTRIBUTE": 6795,
      "Ġnothing": 6796,
      "atches": 6797,
      "4000": 6798,
      "CERT": 6799,
      "ĠCTSU": 6800,
      "controller": 6801,
      "striction": 6802,
      "Ġguar": 6803,
      "acha": 6804,
      "ĠInt": 6805,
      "ivers": 6806,
      "BP": 6807,
      "Msg": 6808,
      "Select": 6809,
      "ĠWi": 6810,
      "alling": 6811,
      "sm": 6812,
      "COMMON": 6813,
      "Ġproper": 6814,
      "Rout": 6815,
      "ENSET": 6816,
      "ĠNew": 6817,
      "ĠBattery": 6818,
      "Ġanalog": 6819,
      "PUBLISH": 6820,
      "ĠRequires": 6821,
      "FORMAN": 6822,
      "xxx": 6823,
      "FORMANCE": 6824,
      "Ġsave": 6825,
      "hip": 6826,
      "ĠSession": 6827,
      "Del": 6828,
      "SPEED": 6829,
      "aintext": 6830,
      "ordin": 6831,
      "TIE": 6832,
      "Ġparent": 6833,
      "utes": 6834,
      "Ġrd": 6835,
      "supported": 6836,
      "ĠSEC": 6837,
      "Management": 6838,
      "Optional": 6839,
      "Ġreporting": 6840,
      "factor": 6841,
      "ĠWaveform": 6842,
      "Ġold": 6843,
      "Ġproces": 6844,
      "ranspose": 6845,
      "Rem": 6846,
      "master": 6847,
      "writ": 6848,
      "ĠPORTE": 6849,
      "ĠRec": 6850,
      "Ġsector": 6851,
      "xffffffff": 6852,
      "INTSTS": 6853,
      "ĠRegisters": 6854,
      "VENDOR": 6855,
      "Back": 6856,
      "ĠConvert": 6857,
      "ICI": 6858,
      "ah": 6859,
      "Ġbypass": 6860,
      "DBUS": 6861,
      "sortedSegment": 6862,
      "xfd": 6863,
      "FSAR": 6864,
      "Ġassigned": 6865,
      "ody": 6866,
      "REPEAT": 6867,
      "quential": 6868,
      ",_": 6869,
      "deinit": 6870,
      "abi": 6871,
      "Ġstructures": 6872,
      "Ġincludes": 6873,
      "CONNECT": 6874,
      "Higher": 6875,
      "Ġgot": 6876,
      "Ġexecution": 6877,
      "Ġpersistent": 6878,
      "ancy": 6879,
      "Ġagainst": 6880,
      "ĠMapped": 6881,
      "HigherPriority": 6882,
      "direction": 6883,
      "ETHERC": 6884,
      "GLOB": 6885,
      "Ġ(&": 6886,
      "spm": 6887,
      "lk": 6888,
      "FIter": 6889,
      "hp": 6890,
      "unct": 6891,
      "Ġsar": 6892,
      "Ġchan": 6893,
      "SITE": 6894,
      "aded": 6895,
      "ante": 6896,
      "ĠETM": 6897,
      "ĠBL": 6898,
      "DV": 6899,
      "Ġrtcio": 6900,
      "HigherPriorityTaskWoken": 6901,
      "UINO": 6902,
      "User": 6903,
      "Ġresolution": 6904,
      "ĠCommissioning": 6905,
      "DIAGNOST": 6906,
      "Ġdirectory": 6907,
      "ĠxStreamBuffer": 6908,
      "eak": 6909,
      "STORAGE": 6910,
      "gdma": 6911,
      "Ġcontainer": 6912,
      "construct": 6913,
      "Ġextract": 6914,
      "Header": 6915,
      "rive": 6916,
      "Ġinvoked": 6917,
      "UHCI": 6918,
      "ĠDR": 6919,
      "ransparent": 6920,
      "epi": 6921,
      "ised": 6922,
      "Ġexchange": 6923,
      "TIMING": 6924,
      "VIOL": 6925,
      "ADIO": 6926,
      "HTTPD": 6927,
      "Ġstage": 6928,
      "ĠClusterRevision": 6929,
      "ilation": 6930,
      "LSTM": 6931,
      "iation": 6932,
      "Ġclose": 6933,
      "Det": 6934,
      "ĠHW": 6935,
      "ĠĠčĊ": 6936,
      "TUN": 6937,
      "ites": 6938,
      "Ġsha": 6939,
      "MIER": 6940,
      "Ġexisting": 6941,
      "Delay": 6942,
      "ĠCDC": 6943,
      "sent": 6944,
      "SOFT": 6945,
      "rep": 6946,
      "Ġbfd": 6947,
      "ĠDM": 6948,
      "BD": 6949,
      "Str": 6950,
      "Ġeth": 6951,
      "Ġsymbol": 6952,
      "Received": 6953,
      "TXF": 6954,
      "Ġzone": 6955,
      "stm": 6956,
      "xch": 6957,
      "ntime": 6958,
      "Ġdetect": 6959,
      "UNF": 6960,
      "ĠSDA": 6961,
      "ĠĠĠĠĠĠĠĠĠĠĠĠĠĠĠĠĠĠĠĠĠĠĠĠĠĠĠĠĠĠĠĠĠĠĠĠĠĠĠĠĠĠĠĠĠĠĠĠĠĠĠĠĠĠĠĠĠĠĠĠĠĠ": 6962,
      "constexpr": 6963,
      "Ġstarts": 6964,
      "Ġexport": 6965,
      "caten": 6966,
      "INITIAL": 6967,
      "Ġvar": 6968,
      "Ġstarting": 6969,
      "Ġbind": 6970,
      "ĠExtended": 6971,
      "ĠMonitor": 6972,
      "tm": 6973,
      "ĠPRIV": 6974,
      "ĠEMIT": 6975,
      "Ġdetected": 6976,
      "EVENTS": 6977,
      "ĠPMIC": 6978,
      "ĠTCF": 6979,
      "inv": 6980,
      "Ġapi": 6981,
      "Ġpolicy": 6982,
      "Ġprefix": 6983,
      "utdown": 6984,
      "constrain": 6985,
      "ificant": 6986,
      "SECUR": 6987,
      "By": 6988,
      "ĠCAN": 6989,
      "coder": 6990,
      "NodeId": 6991,
      "ĠCre": 6992,
      "IA": 6993,
      "ĠConcrete": 6994,
      "Ġ2023": 6995,
      "BufferHandle": 6996,
      "Proj": 6997,
      "Ġdepth": 6998,
      "PRINTF": 6999,
      "Ġguarante": 7000,
      "Ġstartup": 7001,
      "ĠCustom": 7002,
      "Ġlinked": 7003,
      "HR": 7004,
      "APPL": 7005,
      "Ġcarrier": 7006,
      "XFER": 7007,
      "ĠProperty": 7008,
      "Change": 7009,
      "Ġmbed": 7010,
      "Ġdepend": 7011,
      "Ġmodulus": 7012,
      "ĠMeasurement": 7013,
      "CCP": 7014,
      "ĉĉĠĠ": 7015,
      "TOTAL": 7016,
      "split": 7017,
      "nl": 7018,
      "here": 7019,
      "priv": 7020,
      "custom": 7021,
      "Ġalignment": 7022,
      "You": 7023,
      "ĠInformation": 7024,
      "anager": 7025,
      "ĠMIN": 7026,
      "ENCRYPT": 7027,
      "opcode": 7028,
      "weak": 7029,
      "101": 7030,
      "iagnostic": 7031,
      "ĉĠĠĠĠ": 7032,
      "region": 7033,
      "HOOK": 7034,
      "ĠREGDMA": 7035,
      "Ġreferenc": 7036,
      "Ġtasks": 7037,
      "method": 7038,
      "ĠLimit": 7039,
      "ASM": 7040,
      "Non": 7041,
      "Ġprotection": 7042,
      "MACRO": 7043,
      "Ġhelper": 7044,
      "BURST": 7045,
      "Filter": 7046,
      "ĠPDM": 7047,
      "Ġsure": 7048,
      "reinterpret": 7049,
      "ENB": 7050,
      "Mutex": 7051,
      "EEK": 7052,
      "lers": 7053,
      "Ġwaiting": 7054,
      "ĠMove": 7055,
      "(...)": 7056,
      "tree": 7057,
      "rout": 7058,
      "ĠvTask": 7059,
      "BLER": 7060,
      "EF": 7061,
      "Ġencoded": 7062,
      "sdkconfig": 7063,
      "ĠMatter": 7064,
      "Ġobjects": 7065,
      "ILL": 7066,
      "################": 7067,
      "det": 7068,
      "Concrete": 7069,
      "CharSpan": 7070,
      "ĠCRCSCAN": 7071,
      "ĠMan": 7072,
      "MessageBuffer": 7073,
      "ILEG": 7074,
      "publish": 7075,
      "ĠICMP": 7076,
      "Ġweak": 7077,
      "Ġcopied": 7078,
      "ILEGED": 7079,
      "Par": 7080,
      "ĠMQTT": 7081,
      "ssi": 7082,
      "enthread": 7083,
      "ITT": 7084,
      "ertos": 7085,
      "Ġprof": 7086,
      "Configuration": 7087,
      "(\\": 7088,
      "RESTART": 7089,
      "ZREQ": 7090,
      "OPEN": 7091,
      "numeric": 7092,
      "ĉĉĠĠĠĠĠ": 7093,
      "Ġchecks": 7094,
      "ism": 7095,
      "Ġranges": 7096,
      "Depth": 7097,
      "Ġfunc": 7098,
      "ĠMUL": 7099,
      "Ġ&(": 7100,
      "ĠĠĠĠĠĠĠĠĠĠĠĠĠĠĠĠĠĠĠĠĠĠĠĠĠĠĠĠĠĠĠĠĠĠĠĠĠĠĠĠĠĠĠĠĠĠĠĠĠĠĠĠĠĠĠĠĠĠĠĠĠĠĠĠĠĠĠĠĠĠĠ": 7101,
      "UMMY": 7102,
      "IPS": 7103,
      "COMPILER": 7104,
      "decrypt": 7105,
      "Ġspecifies": 7106,
      "ASSEM": 7107,
      "Ġpc": 7108,
      "ĠTensorFlow": 7109,
      "Ġfifo": 7110,
      "root": 7111,
      "RESERVED": 7112,
      "USERROW": 7113,
      "PREPAYMENT": 7114,
      "ĠBTC": 7115,
      "ĠFUNC": 7116,
      "Ġring": 7117,
      "ĠTher": 7118,
      "PROTOC": 7119,
      "ATOMIC": 7120,
      "PIPE": 7121,
      "ĠBluetooth": 7122,
      "ĠconfigUSE": 7123,
      "All": 7124,
      "Ġbluetooth": 7125,
      "Ġexit": 7126,
      "Ġperformed": 7127,
      "AIR": 7128,
      "NEW": 7129,
      "Ġidx": 7130,
      "Unit": 7131,
      "conv": 7132,
      "freertos": 7133,
      "FRAG": 7134,
      "oring": 7135,
      "Default": 7136,
      "temperature": 7137,
      "liver": 7138,
      "Ġrestart": 7139,
      "ĠMUST": 7140,
      "otal": 7141,
      "Ġautoload": 7142,
      "CONNECTION": 7143,
      "Broadcast": 7144,
      "multi": 7145,
      "ĠMMC": 7146,
      "He": 7147,
      "Ġhttpd": 7148,
      "elper": 7149,
      "Ġidentifiers": 7150,
      "peri": 7151,
      "recursive": 7152,
      "ĠELC": 7153,
      "ĠĠĠĠĠĠĠĠĠĠĠĠĠĠĠĠĠĠĠĠĠĠĠĠĠĠĠĠĠĠĠĠĠĠĠĠĠĠĠĠĠĠĠĠĠĠĠĠĠĠĠĠĠĠĠĠĠĠĠĠĠĠĠĠĠĠĠĠĠĠĠĠ": 7154,
      "RATE": 7155,
      "openthread": 7156,
      "RUNTIME": 7157,
      "Ġmdns": 7158,
      "Call": 7159,
      "ToWait": 7160,
      "DIGFILT": 7161,
      "`,": 7162,
      "EGORY": 7163,
      "++;": 7164,
      "ĠFinish": 7165,
      "CLO": 7166,
      "Pool": 7167,
      "ĠĠĠĠĠĠĠĠĠĠĠĠĠĠĠĠĠĠĠĠĠĠĠĠĠĠĠĠĠĠĠĠĠĠĠĠĠĠĠĠĠĠĠĠĠĠĠĠĠĠĠĠĠĠĠĠĠĠĠĠĠĠĠĠĠĠĠĠĠĠĠĠĠĠĠĠ": 7168,
      "Ġbootloader": 7169,
      "MRegistration": 7170,
      "ĠPositive": 7171,
      "Safe": 7172,
      "duled": 7173,
      "abs": 7174,
      "abilities": 7175,
      "See": 7176,
      "Ġreceiver": 7177,
      "Connected": 7178,
      "Ġmailbox": 7179,
      "signature": 7180,
      "transfer": 7181,
      "ĠPrivilege": 7182,
      "Generic": 7183,
      "ĠNVIC": 7184,
      "ĠStack": 7185,
      "quired": 7186,
      "Ġexists": 7187,
      "SDHI": 7188,
      "complete": 7189,
      "atory": 7190,
      "Ġfunctionality": 7191,
      "Ġcharacteristic": 7192,
      "Ġconflict": 7193,
      "TWI": 7194,
      "safe": 7195,
      "FACE": 7196,
      "ĠADBUF": 7197,
      "ĠNONSEC": 7198,
      "distributed": 7199,
      "upgrade": 7200,
      "SUFF": 7201,
      "Color": 7202,
      "exec": 7203,
      "ĠFields": 7204,
      "COCPU": 7205,
      "TFL": 7206,
      "Ticks": 7207,
      "Ġcases": 7208,
      "Ġppp": 7209,
      "FIRST": 7210,
      "CCD": 7211,
      "SIGNATURE": 7212,
      "ĠaWriter": 7213,
      "Ġour": 7214,
      "ĠTickType": 7215,
      "sequence": 7216,
      "storage": 7217,
      "CRA": 7218,
      "TRIGGER": 7219,
      "ĠTUSB": 7220,
      "ĠConversion": 7221,
      "ĠUINT": 7222,
      "Structs": 7223,
      "Ġbeginning": 7224,
      "CATEGORY": 7225,
      "PERFORMANCE": 7226,
      "Ġmanufacturer": 7227,
      "CTRLC": 7228,
      "ĠFeatureMap": 7229,
      "view": 7230,
      "Ġpositive": 7231,
      "SYSCON": 7232,
      "termin": 7233,
      "Ġcarry": 7234,
      "BSD": 7235,
      "Ġforward": 7236,
      "ĠDeep": 7237,
      "============================================================================": 7238,
      "ĠFixed": 7239,
      "-+": 7240,
      "Ġns": 7241,
      "ĠCalled": 7242,
      "can": 7243,
      "libraries": 7244,
      "ARSSL": 7245,
      "Ġcompatible": 7246,
      "irq": 7247,
      "Ġverification": 7248,
      "LESS": 7249,
      "zll": 7250,
      "ĠaTag": 7251,
      "ĠDP": 7252,
      "alled": 7253,
      "COND": 7254,
      "ĠDis": 7255,
      "Ġexpression": 7256,
      "ByteSpan": 7257,
      "){": 7258,
      "EventGroup": 7259,
      "Ġsignificant": 7260,
      "Ġ(*_": 7261,
      "short": 7262,
      "Ġcol": 7263,
      "Ġestabl": 7264,
      "axis": 7265,
      "nonnull": 7266,
      "ATTEN": 7267,
      "Ġ%[": 7268,
      "ĠPRIVILEGED": 7269,
      "NEXT": 7270,
      "CORRUP": 7271,
      "ĠBaud": 7272,
      "ĠArray": 7273,
      "Ġ255": 7274,
      "Reduce": 7275,
      "Ġlook": 7276,
      "Ġcoeff": 7277,
      "MATH": 7278,
      "HARD": 7279,
      "ĠSET": 7280,
      "Ġatomic": 7281,
      "Verifier": 7282,
      "SELE": 7283,
      "ĠExt": 7284,
      "essaging": 7285,
      "Ġjson": 7286,
      "Ġpermit": 7287,
      "Disabled": 7288,
      "property": 7289,
      "malloc": 7290,
      "tick": 7291,
      "exception": 7292,
      "Ġiter": 7293,
      "Ġnormal": 7294,
      "ĠLess": 7295,
      "ĠFlat": 7296,
      "Ġoriginal": 7297,
      "Ġpop": 7298,
      "ENTROPY": 7299,
      "ĠLVD": 7300,
      "Ġdeclar": 7301,
      "late": 7302,
      "mplement": 7303,
      "ĠFlags": 7304,
      "AEAD": 7305,
      "dup": 7306,
      "Ġconn": 7307,
      "COVERING": 7308,
      "Valid": 7309,
      "WEAK": 7310,
      "RW": 7311,
      "Day": 7312,
      "ĠSDRAM": 7313,
      "ĠAuto": 7314,
      "scenes": 7315,
      "RESOL": 7316,
      "OCT": 7317,
      "ĠArduino": 7318,
      "ĠPurpose": 7319,
      "''": 7320,
      "ĠTUD": 7321,
      "sy": 7322,
      "istance": 7323,
      "WITHOUT": 7324,
      "iso": 7325,
      "keys": 7326,
      "GOT": 7327,
      "PROFILE": 7328,
      "vide": 7329,
      "nss": 7330,
      "RAND": 7331,
      "Support": 7332,
      "Ġdummy": 7333,
      "NA": 7334,
      "Ġwants": 7335,
      "day": 7336,
      "hport": 7337,
      "tunnel": 7338,
      "ĠSF": 7339,
      "Ġmak": 7340,
      "initialized": 7341,
      "UCTION": 7342,
      "CTX": 7343,
      "lop": 7344,
      "Ġwords": 7345,
      "RECTION": 7346,
      "Ġax": 7347,
      "MIS": 7348,
      "Ġbroadcast": 7349,
      "runc": 7350,
      "Co": 7351,
      "sta": 7352,
      "Ġpcnt": 7353,
      "fully": 7354,
      "centage": 7355,
      "DIAGNOSTICS": 7356,
      "ĠMMU": 7357,
      "ĠInsert": 7358,
      "PERF": 7359,
      "Ġgeneral": 7360,
      "ĠJPEG": 7361,
      "ĠOtherwise": 7362,
      "Sign": 7363,
      "Ġsalt": 7364,
      "Energy": 7365,
      "position": 7366,
      "Ġmerge": 7367,
      "Ġfast": 7368,
      "ClusterServer": 7369,
      "ĠXTAL": 7370,
      "Ip": 7371,
      "initialize": 7372,
      "Req": 7373,
      "ĠTfLiteStatus": 7374,
      "TUNNEL": 7375,
      "ĠNull": 7376,
      "Fault": 7377,
      "Ġsdio": 7378,
      "ĠOK": 7379,
      "==============================================================================": 7380,
      "XXXX": 7381,
      "Ġsepar": 7382,
      "Ġ*****************": 7383,
      "mqtt": 7384,
      "ĠBLOCK": 7385,
      "UNUSED": 7386,
      "Do": 7387,
      "dram": 7388,
      "LEAST": 7389,
      "ĠOC": 7390,
      "Ġconstants": 7391,
      "ĠResult": 7392,
      "Ġ2018": 7393,
      "thr": 7394,
      "rivers": 7395,
      "ĠMODEM": 7396,
      "UnknownEnumValue": 7397,
      "Ġfactor": 7398,
      "ĠCAM": 7399,
      "ĠFormat": 7400,
      "Sw": 7401,
      "option": 7402,
      "wo": 7403,
      "ĠGenerate": 7404,
      "Plat": 7405,
      "ĠRelease": 7406,
      "Ġic": 7407,
      "abling": 7408,
      "Ġwake": 7409,
      "SCU": 7410,
      "ĠWR": 7411,
      "Ġil": 7412,
      "VB": 7413,
      "icated": 7414,
      "occ": 7415,
      "you": 7416,
      "ĠSRAM": 7417,
      "ĠPermission": 7418,
      "IFR": 7419,
      "Scal": 7420,
      "inputs": 7421,
      "ERA": 7422,
      "Ġmemcpy": 7423,
      "ĠPROGMEM": 7424,
      "duction": 7425,
      "SYSTIMER": 7426,
      "diff": 7427,
      "ĠPINB": 7428,
      "AXI": 7429,
      "Ġlarger": 7430,
      "PROTOCOL": 7431,
      "ĠPublish": 7432,
      "ĠICache": 7433,
      "stl": 7434,
      "Ġdecrypt": 7435,
      "Ġdivider": 7436,
      "EVOUT": 7437,
      "HTO": 7438,
      "/*****************": 7439,
      "Ġpreload": 7440,
      "DISABLED": 7441,
      "ERY": 7442,
      "nssd": 7443,
      "IER": 7444,
      "Ġtc": 7445,
      "sock": 7446,
      "ternative": 7447,
      "DG": 7448,
      "GLOBAL": 7449,
      "Ġgdma": 7450,
      "RXC": 7451,
      "Scan": 7452,
      "CAPT": 7453,
      "Ġprocessed": 7454,
      "ĠClass": 7455,
      "BOO": 7456,
      "ĠES": 7457,
      "contin": 7458,
      "Ġswap": 7459,
      "Dimensions": 7460,
      "Ref": 7461,
      "CRE": 7462,
      "Ġcomponent": 7463,
      "Ġimplementations": 7464,
      "SZ": 7465,
      "Threshold": 7466,
      "Ġarbit": 7467,
      "PHASE": 7468,
      "nn": 7469,
      "ADDRMASK": 7470,
      "Ġfails": 7471,
      "Ġtry": 7472,
      "Ġnumbers": 7473,
      "Ġfit": 7474,
      "cli": 7475,
      "sche": 7476,
      "mon": 7477,
      "\"),": 7478,
      "Mul": 7479,
      "SUT": 7480,
      "ĠĠĠĠĠĠĠĠĠĠĠĠĠĠĠĠĠĠĠĠĠĠĠĠĠĠĠĠĠĠĠĠĠĠĠĠĠĠĠĠĠĠĠĠĠĠĠĠĠĠĠĠĠĠĠĠĠĠĠĠĠĠĠĠĠĠĠĠĠ": 7481,
      "SERVICE": 7482,
      "ĠName": 7483,
      "ĠHow": 7484,
      "Quantization": 7485,
      "IRE": 7486,
      "gate": 7487,
      "CXX": 7488,
      "Ġupper": 7489,
      "Ġobtained": 7490,
      "Ġdecimal": 7491,
      "INSUFF": 7492,
      "Invoke": 7493,
      "MSB": 7494,
      "ĠMBED": 7495,
      "SECURITY": 7496,
      "BINARY": 7497,
      "connection": 7498,
      "ĠSetup": 7499,
      "Ġear": 7500,
      "INFR": 7501,
      "Ġslow": 7502,
      "VAIL": 7503,
      "ayment": 7504,
      "Ġundefined": 7505,
      "INTERFACE": 7506,
      "ithmet": 7507,
      ">()": 7508,
      "dns": 7509,
      "extr": 7510,
      "MK": 7511,
      "zigbee": 7512,
      "utable": 7513,
      "ĠTarget": 7514,
      "ĠĠĠĠĠĠĠĠĠĠĠĠĠĠĠĠĠĠĠĠĠĠĠĠĠĠĠĠĠĠĠĠĠĠĠĠĠĠĠĠĠĠĠĠĠĠĠĠĠĠĠĠĠĠĠĠĠĠĠĠĠ": 7515,
      "ĠGPT": 7516,
      "MPS": 7517,
      "Ġsmaller": 7518,
      "throw": 7519,
      "Ġlocale": 7520,
      "ithmetic": 7521,
      "Format": 7522,
      "zgpd": 7523,
      "full": 7524,
      "ĠStandard": 7525,
      "centration": 7526,
      "CKSEL": 7527,
      "2000": 7528,
      "PRESC": 7529,
      "Ġimport": 7530,
      "STEP": 7531,
      "0002": 7532,
      "MX": 7533,
      "Ġpointed": 7534,
      "ĠImplement": 7535,
      "ĠBSP": 7536,
      "Ġseed": 7537,
      "Program": 7538,
      "CANCE": 7539,
      "ĠSIGN": 7540,
      "_)": 7541,
      "iscovery": 7542,
      "DifferenceType": 7543,
      "Ġextra": 7544,
      "ĠScal": 7545,
      "olar": 7546,
      "backend": 7547,
      "PULL": 7548,
      "ĠGlobal": 7549,
      "Gather": 7550,
      "ĠHold": 7551,
      "768": 7552,
      "iate": 7553,
      "try": 7554,
      "LES": 7555,
      "ACR": 7556,
      "ĠADCA": 7557,
      "PPC": 7558,
      "VIOLATE": 7559,
      "Ġmodes": 7560,
      "verter": 7561,
      "Ġtransmitted": 7562,
      "PURPOSE": 7563,
      "Ġrecords": 7564,
      "ĠDivision": 7565,
      "Ġdelegate": 7566,
      "Ġaccesses": 7567,
      "SUC": 7568,
      "*************/": 7569,
      "Rx": 7570,
      "Ġparse": 7571,
      "rate": 7572,
      "Ġconverted": 7573,
      "Ġverify": 7574,
      "Addr": 7575,
      "EB": 7576,
      "Memory": 7577,
      "modem": 7578,
      "UME": 7579,
      "Ġsock": 7580,
      "ĠMedium": 7581,
      "METH": 7582,
      "KEEP": 7583,
      "idirectionalSequence": 7584,
      "px": 7585,
      "000003": 7586,
      "Ġ\"\"": 7587,
      "ĠNegative": 7588,
      "alth": 7589,
      "TCPIP": 7590,
      "ĠCONN": 7591,
      "Ġmembers": 7592,
      "ICIENT": 7593,
      "ĠPack": 7594,
      "Reset": 7595,
      "DIF": 7596,
      "Payload": 7597,
      "difference": 7598,
      "Ġbias": 7599,
      "ĠRNG": 7600,
      "quantized": 7601,
      "_*": 7602,
      "Ġreq": 7603,
      "ersistent": 7604,
      "Ġprogramming": 7605,
      "livered": 7606,
      "Spec": 7607,
      "queu": 7608,
      "socket": 7609,
      "ws": 7610,
      "Ġdeal": 7611,
      "Ġexecute": 7612,
      "Ġcharge": 7613,
      "ĠMREPEAT": 7614,
      "ĠOS": 7615,
      "Ġmapped": 7616,
      "ENCLR": 7617,
      "METHOD": 7618,
      "tribution": 7619,
      "KNOWN": 7620,
      "opped": 7621,
      "sram": 7622,
      "ĠBCNT": 7623,
      "iform": 7624,
      "ĠSCL": 7625,
      "ĠCommunication": 7626,
      "amma": 7627,
      "ovf": 7628,
      "generate": 7629,
      "Ġrestriction": 7630,
      "Ġstation": 7631,
      "MSC": 7632,
      "inc": 7633,
      "REFER": 7634,
      "Activation": 7635,
      "dot": 7636,
      "CALLBACK": 7637,
      "dig": 7638,
      "HTOLE": 7639,
      "Ġmodem": 7640,
      "dimensions": 7641,
      "Ġlicense": 7642,
      "ĠTRUE": 7643,
      "ĠPP": 7644,
      "ĠICR": 7645,
      "umes": 7646,
      "otent": 7647,
      "ĠACK": 7648,
      "ĠRESET": 7649,
      "copydoc": 7650,
      "wind": 7651,
      "ĠCONF": 7652,
      "Unless": 7653,
      "ĠARM": 7654,
      "limitations": 7655,
      "Licensed": 7656,
      "GM": 7657,
      "XOSC": 7658,
      "crc": 7659,
      "ird": 7660,
      "OWNER": 7661,
      "Ġwatch": 7662,
      "Ġactually": 7663,
      "cores": 7664,
      "INGEMENT": 7665,
      "ĠCOAP": 7666,
      "ĠSignature": 7667,
      "INFRINGEMENT": 7668,
      "Batch": 7669,
      "ĠDelete": 7670,
      "Ġrepe": 7671,
      ":%": 7672,
      "GENERIC": 7673,
      "lative": 7674,
      "ĠACTION": 7675,
      "cbc": 7676,
      "==============================================================================*/": 7677,
      "Concept": 7678,
      "sdio": 7679,
      "CALEND": 7680,
      "Ġmapping": 7681,
      "ĠRpc": 7682,
      "DEFL": 7683,
      "ĠPD": 7684,
      "scribe": 7685,
      "ĠOff": 7686,
      "TF": 7687,
      "ĠĠĠĠĠĠĠĠĠĠĠĠĠĠĠĠĠĠĠĠĠĠĠĠĠĠĠĠĠĠĠĠĠĠĠĠĠĠĠĠĠĠĠĠĠĠĠĠĠĠĠĠĠĠĠĠĠĠĠĠĠĠĠ": 7688,
      "Schedule": 7689,
      "ĠPoint": 7690,
      "ĠPOL": 7691,
      "NOW": 7692,
      "ĠTr": 7693,
      "CALENDAR": 7694,
      "bin": 7695,
      "priority": 7696,
      "Met": 7697,
      "VISION": 7698,
      "ĠHSTPIPI": 7699,
      "Ġdate": 7700,
      "ĠUnit": 7701,
      "CYCLE": 7702,
      "SCLK": 7703,
      "STABLE": 7704,
      "SCK": 7705,
      "Ġexceed": 7706,
      "Ġhigher": 7707,
      "settings": 7708,
      "quis": 7709,
      "No": 7710,
      "Ġprotected": 7711,
      "calendar": 7712,
      "Ġcli": 7713,
      "ĠAEAD": 7714,
      "Ġdat": 7715,
      "ĠUnivers": 7716,
      "attc": 7717,
      "seg": 7718,
      "ISION": 7719,
      "mo": 7720,
      "ĠReady": 7721,
      "Frame": 7722,
      "ĠTouch": 7723,
      "locale": 7724,
      "OUS": 7725,
      "sb": 7726,
      "ĠSDMMC": 7727,
      "nan": 7728,
      "invalid": 7729,
      "ĠEvents": 7730,
      "LR": 7731,
      "OE": 7732,
      "REMAIN": 7733,
      "NODE": 7734,
      "DETECTED": 7735,
      "FAT": 7736,
      "Ġplaintext": 7737,
      "BBPLL": 7738,
      "html": 7739,
      "LAST": 7740,
      "optional": 7741,
      "ĠRB": 7742,
      "asing": 7743,
      "DBY": 7744,
      "Container": 7745,
      "LOCKBITS": 7746,
      "ĠĠĠĠĠĠĠĠĠĠĠĠĠĠĠĠĠĠĠĠĠĠĠĠĠĠĠĠĠĠĠĠĠĠĠĠĠĠĠĠĠĠĠĠĠĠĠĠĠĠĠĠĠĠĠĠĠĠĠĠĠĠĠĠĠĠĠĠĠĠĠĠĠ": 7747,
      "IZATION": 7748,
      "ĠAllocate": 7749,
      "ĠLocal": 7750,
      "UNKNOWN": 7751,
      "Ġdistribute": 7752,
      "Ġtakes": 7753,
      "acs": 7754,
      "ĠUUID": 7755,
      "Ġderivation": 7756,
      "Pair": 7757,
      "fp": 7758,
      "ĠSS": 7759,
      "PADDING": 7760,
      "WU": 7761,
      "INSUFFICIENT": 7762,
      "VBT": 7763,
      "ĠMultip": 7764,
      "Ġhalf": 7765,
      "patch": 7766,
      "urst": 7767,
      "--------|": 7768,
      "ĠNVS": 7769,
      "ega": 7770,
      "have": 7771,
      "Host": 7772,
      "Ġcalibration": 7773,
      "configure": 7774,
      "IMA": 7775,
      "asn": 7776,
      "velop": 7777,
      "VEC": 7778,
      "ĠFStar": 7779,
      "restart": 7780,
      "cv": 7781,
      "ystimer": 7782,
      "ressure": 7783,
      "Ġvendor": 7784,
      "ĠConnect": 7785,
      "rown": 7786,
      "PriorityLevel": 7787,
      "ĠSNTP": 7788,
      "derivation": 7789,
      "Ġbitmap": 7790,
      "TED": 7791,
      "world": 7792,
      "ĠCSI": 7793,
      "Ġmasked": 7794,
      "ĠVerifyField": 7795,
      "Ġsdmmc": 7796,
      "Ġ40": 7797,
      "PH": 7798,
      "FRHOST": 7799,
      "Ġpanel": 7800,
      "SES": 7801,
      "cy": 7802,
      "ght": 7803,
      "Ġperiodic": 7804,
      "VS": 7805,
      "oss": 7806,
      "Ġasynchronous": 7807,
      "ssid": 7808,
      "SliceOptions": 7809,
      "assign": 7810,
      "ĠNOTE": 7811,
      "INCLUDED": 7812,
      "ĠPBUF": 7813,
      "Ġplaced": 7814,
      "ĠParity": 7815,
      "ENTER": 7816,
      "TERMIN": 7817,
      "Ġcryptograph": 7818,
      "Ġresol": 7819,
      "Ġmethods": 7820,
      "drbg": 7821,
      "intrin": 7822,
      "REVISION": 7823,
      "diag": 7824,
      "ĠĠĠĠĠĠĠĠĠĠĠĠĠĠĠĠĠĠĠĠĠĠĠĠĠĠĠĠĠĠĠĠĠĠĠĠĠĠĠĠĠĠĠĠĠĠĠĠĠĠĠĠĠĠĠĠĠĠĠĠĠĠĠĠĠĠĠĠĠĠĠĠĠĠĠĠĠĠĠĠĠĠĠĠ": 7825,
      "MTX": 7826,
      "cel": 7827,
      "make": 7828,
      "ĠMinimum": 7829,
      "Ġel": 7830,
      "quantize": 7831,
      "aneous": 7832,
      "REFERENCE": 7833,
      "Ġxthal": 7834,
      "Ġcompile": 7835,
      "ĠLLDESC": 7836,
      "mov": 7837,
      "Ġprevent": 7838,
      "Ġknow": 7839,
      "Sum": 7840,
      "variable": 7841,
      "ĠWD": 7842,
      "Link": 7843,
      "REMOVE": 7844,
      "Ġrepresenting": 7845,
      "Div": 7846,
      "Ġresources": 7847,
      "PRESSURE": 7848,
      "AVRC": 7849,
      ".\\\\": 7850,
      "ABORT": 7851,
      "ĠDEVEPTI": 7852,
      "WS": 7853,
      "specified": 7854,
      "SELECT": 7855,
      "Ġtyp": 7856,
      "arrier": 7857,
      "FStar": 7858,
      "ĠFROM": 7859,
      "URED": 7860,
      "Ġtwai": 7861,
      "mel": 7862,
      "Ġprogress": 7863,
      "ĠSTATUS": 7864,
      "available": 7865,
      "Ġtoken": 7866,
      "ntp": 7867,
      "Invalid": 7868,
      "Ġhereby": 7869,
      "RECORD": 7870,
      "pw": 7871,
      "PROC": 7872,
      "Ġpull": 7873,
      "Condition": 7874,
      "ĠFind": 7875,
      "Ġdecomp": 7876,
      "ĠPorts": 7877,
      "Ġquantized": 7878,
      "ĠInserted": 7879,
      "Ġturns": 7880,
      "ITTLE": 7881,
      "ĠIRAM": 7882,
      "OPS": 7883,
      "PCR": 7884,
      "Ġsupplied": 7885,
      "Ġfragment": 7886,
      "rics": 7887,
      "Ġopcode": 7888,
      "protocol": 7889,
      "ĠCalcul": 7890,
      "Ġhandled": 7891,
      "ĠDivide": 7892,
      "NP": 7893,
      "Ġday": 7894,
      "Ġshape": 7895,
      "sct": 7896,
      "Ġrequests": 7897,
      "uuid": 7898,
      "Ġpoll": 7899,
      "AddElement": 7900,
      "testation": 7901,
      "INTSTAT": 7902,
      "hand": 7903,
      "YPE": 7904,
      "UV": 7905,
      "PRIO": 7906,
      "Ġapplications": 7907,
      "SOCKET": 7908,
      "rsp": 7909,
      "ADBUF": 7910,
      "Ġargs": 7911,
      "SAMPLE": 7912,
      "Ġdup": 7913,
      "ĠProgram": 7914,
      "Ġcomplex": 7915,
      "ĠEnergy": 7916,
      "ĠuECC": 7917,
      "ĠSA": 7918,
      "otError": 7919,
      "OCCUP": 7920,
      "merge": 7921,
      "Ġzgp": 7922,
      "Ġhandling": 7923,
      "SCHEDUL": 7924,
      "CONNECTED": 7925,
      "Ġentire": 7926,
      "SYNCUSER": 7927,
      "hint": 7928,
      "Ġdescriptors": 7929,
      "Cre": 7930,
      "rb": 7931,
      "Query": 7932,
      "measurement": 7933,
      "ESIZE": 7934,
      "neon": 7935,
      "Ġleg": 7936,
      "Interval": 7937,
      "exit": 7938,
      "cdc": 7939,
      "emand": 7940,
      ")__": 7941,
      "Stop": 7942,
      "Ġpack": 7943,
      "00000004": 7944,
      "Ġcomes": 7945,
      "Ġcs": 7946,
      "Ġpost": 7947,
      "urable": 7948,
      "au": 7949,
      "PPP": 7950,
      "ĠxEventGroup": 7951,
      "Ġbusy": 7952,
      "ĠMEMPROT": 7953,
      "autoload": 7954,
      "quisites": 7955,
      "]]": 7956,
      "dle": 7957,
      "ogle": 7958,
      "Peer": 7959,
      "Ġunknown": 7960,
      "COMPARE": 7961,
      "SOF": 7962,
      "soft": 7963,
      "ĠRE": 7964,
      "upancy": 7965,
      "STE": 7966,
      "ĠInte": 7967,
      "trl": 7968,
      "ĠSample": 7969,
      "sal": 7970,
      "ĠShould": 7971,
      "PSR": 7972,
      "Ġcompletion": 7973,
      "while": 7974,
      "ĠxMessageBuffer": 7975,
      "ASSEMBLER": 7976,
      "PRR": 7977,
      "Ġsrv": 7978,
      "(!": 7979,
      "ĠBusy": 7980,
      "REJECT": 7981,
      "ĠLC": 7982,
      "EEPROM": 7983,
      "/>.": 7984,
      "ĠPVT": 7985,
      "---------------": 7986,
      "LSTIMER": 7987,
      "***********": 7988,
      "Ġfill": 7989,
      "ĠAcc": 7990,
      "Ġseq": 7991,
      "rea": 7992,
      "ĠOID": 7993,
      "ĠCTRLA": 7994,
      "Mem": 7995,
      "nce": 7996,
      "andatory": 7997,
      "DimensionsCount": 7998,
      "COPY": 7999
    },
    "merges": [
      [
        "Ġ",
        "Ġ"
      ],
      [
        "ĠĠ",
        "ĠĠ"
      ],
      [
        "č",
        "Ċ"
      ],
      [
        "ĠĠĠĠ",
        "ĠĠĠĠ"
      ],
      [
        "i",
        "n"
      ],
      [
        "Ġ",
        "*"
      ],
      [
        "e",
        "r"
      ],
      [
        "d",
        "e"
      ],
      [
        "=",
        "="
      ],
      [
        "o",
        "n"
      ],
      [
        "r",
        "e"
      ],
      [
        "ĠĠ",
        "Ġ"
      ],
      [
        "Ġ",
        "t"
      ],
      [
        "s",
        "t"
      ],
      [
        "a",
        "t"
      ],
      [
        "ĠĠĠĠĠĠĠĠ",
        "ĠĠĠĠĠĠĠĠ"
      ],
      [
        "de",
        "f"
      ],
      [
        "e",
        "n"
      ],
      [
        "-",
        "-"
      ],
      [
        "Ġ",
        "0"
      ],
      [
        "in",
        "e"
      ],
      [
        "i",
        "t"
      ],
      [
        "/",
        "*"
      ],
      [
        "Ġ*",
        "/"
      ],
      [
        "def",
        "ine"
      ],
      [
        "Ġ",
        "c"
      ],
      [
        "o",
        "r"
      ],
      [
        "h",
        "e"
      ],
      [
        "a",
        "l"
      ],
      [
        "i",
        "on"
      ],
      [
        "==",
        "=="
      ],
      [
        "Ġ",
        "a"
      ],
      [
        "Ġ",
        "("
      ],
      [
        "l",
        "e"
      ],
      [
        "in",
        "t"
      ],
      [
        "s",
        "e"
      ],
      [
        "Ġ",
        "b"
      ],
      [
        "*",
        "*"
      ],
      [
        "a",
        "r"
      ],
      [
        "0",
        "0"
      ],
      [
        "e",
        "s"
      ],
      [
        "Ġ",
        "/*"
      ],
      [
        "Ġt",
        "he"
      ],
      [
        "c",
        "t"
      ],
      [
        "Ġ",
        "_"
      ],
      [
        "I",
        "N"
      ],
      [
        "Ġ",
        "f"
      ],
      [
        "Ġ",
        "u"
      ],
      [
        "i",
        "s"
      ],
      [
        "Ġ",
        "p"
      ],
      [
        "e",
        "d"
      ],
      [
        "i",
        "f"
      ],
      [
        "a",
        "n"
      ],
      [
        "u",
        "t"
      ],
      [
        "--",
        "--"
      ],
      [
        "Ġ",
        "T"
      ],
      [
        "Ġ",
        "s"
      ],
      [
        "Ġ",
        "C"
      ],
      [
        "Ġ",
        "S"
      ],
      [
        "Ġ",
        "o"
      ],
      [
        "i",
        "c"
      ],
      [
        "Ġ",
        "m"
      ],
      [
        "E",
        "R"
      ],
      [
        "a",
        "m"
      ],
      [
        "Ġ",
        "re"
      ],
      [
        "r",
        "i"
      ],
      [
        "Ġ",
        "R"
      ],
      [
        "====",
        "===="
      ],
      [
        "Ġ",
        "@"
      ],
      [
        "p",
        "t"
      ],
      [
        "a",
        "s"
      ],
      [
        "r",
        "o"
      ],
      [
        "/",
        "/"
      ],
      [
        "E",
        "S"
      ],
      [
        "Ġ",
        "A"
      ],
      [
        ")",
        ";"
      ],
      [
        "Ġ",
        "P"
      ],
      [
        "Ġ",
        "in"
      ],
      [
        "Ġt",
        "o"
      ],
      [
        "in",
        "g"
      ],
      [
        "ĠĠĠĠ",
        "ĠĠĠ"
      ],
      [
        "u",
        "r"
      ],
      [
        "e",
        "t"
      ],
      [
        "p",
        "e"
      ],
      [
        "a",
        "c"
      ],
      [
        "Ġ",
        "="
      ],
      [
        "**",
        "**"
      ],
      [
        "Ġ",
        "1"
      ],
      [
        "E",
        "N"
      ],
      [
        "O",
        "R"
      ],
      [
        "Ġ",
        "n"
      ],
      [
        "Ġ",
        "w"
      ],
      [
        "S",
        "T"
      ],
      [
        "ĠĠĠĠ",
        "Ġ"
      ],
      [
        "3",
        "2"
      ],
      [
        "ĠĠĠĠĠĠĠĠĠĠĠĠĠĠĠĠ",
        "ĠĠĠĠĠĠĠĠĠĠĠĠĠĠĠĠ"
      ],
      [
        "Ġ_",
        "_"
      ],
      [
        "Ġc",
        "on"
      ],
      [
        "l",
        "o"
      ],
      [
        "Ġ",
        "st"
      ],
      [
        "Ġo",
        "f"
      ],
      [
        "Ġ",
        "I"
      ],
      [
        "O",
        "N"
      ],
      [
        "i",
        "d"
      ],
      [
        "en",
        "t"
      ],
      [
        ":",
        ":"
      ],
      [
        "Ġ",
        "\\"
      ],
      [
        "Ġu",
        "int"
      ],
      [
        "Ġ",
        "{"
      ],
      [
        "a",
        "d"
      ],
      [
        "u",
        "l"
      ],
      [
        "Ġ",
        "d"
      ],
      [
        "A",
        "T"
      ],
      [
        "e",
        "l"
      ],
      [
        "S",
        "E"
      ],
      [
        "Ġ",
        "M"
      ],
      [
        "Ġ",
        "v"
      ],
      [
        "I",
        "T"
      ],
      [
        "R",
        "E"
      ],
      [
        "r",
        "u"
      ],
      [
        "b",
        "le"
      ],
      [
        "l",
        "u"
      ],
      [
        "i",
        "m"
      ],
      [
        "es",
        "p"
      ],
      [
        "ar",
        "am"
      ],
      [
        "C",
        "L"
      ],
      [
        "u",
        "n"
      ],
      [
        "Ġ",
        "D"
      ],
      [
        "i",
        "g"
      ],
      [
        "e",
        "x"
      ],
      [
        "o",
        "s"
      ],
      [
        "----",
        "----"
      ],
      [
        "y",
        "pe"
      ],
      [
        "Ġ",
        "E"
      ],
      [
        "!",
        "<"
      ],
      [
        "Ġ/*",
        "!<"
      ],
      [
        "o",
        "m"
      ],
      [
        "Ġ",
        "is"
      ],
      [
        "i",
        "st"
      ],
      [
        "Ġ",
        "L"
      ],
      [
        "f",
        "f"
      ],
      [
        "en",
        "d"
      ],
      [
        "Ġb",
        "it"
      ],
      [
        "a",
        "ble"
      ],
      [
        "at",
        "ion"
      ],
      [
        "E",
        "D"
      ],
      [
        "C",
        "H"
      ],
      [
        "u",
        "e"
      ],
      [
        "u",
        "m"
      ],
      [
        "Ġa",
        "n"
      ],
      [
        "A",
        "L"
      ],
      [
        "P",
        "I"
      ],
      [
        "t",
        "er"
      ],
      [
        "p",
        "aram"
      ],
      [
        "o",
        "l"
      ],
      [
        "A",
        "R"
      ],
      [
        "T",
        "R"
      ],
      [
        "a",
        "g"
      ],
      [
        "ur",
        "n"
      ],
      [
        "/*",
        "*"
      ],
      [
        "o",
        "t"
      ],
      [
        "Ġt",
        "h"
      ],
      [
        "c",
        "e"
      ],
      [
        "re",
        "s"
      ],
      [
        "Ġ",
        ":"
      ],
      [
        "_",
        "_"
      ],
      [
        "i",
        "l"
      ],
      [
        "o",
        "de"
      ],
      [
        "at",
        "e"
      ],
      [
        "i",
        "z"
      ],
      [
        "Ġf",
        "or"
      ],
      [
        "Ġ",
        "B"
      ],
      [
        "t",
        "urn"
      ],
      [
        "========",
        "========"
      ],
      [
        "Ġ",
        "F"
      ],
      [
        "ct",
        "ion"
      ],
      [
        "Ġ",
        "U"
      ],
      [
        "Ġ",
        "l"
      ],
      [
        "IN",
        "T"
      ],
      [
        "M",
        "A"
      ],
      [
        "at",
        "a"
      ],
      [
        "Ġ",
        "G"
      ],
      [
        "as",
        "k"
      ],
      [
        "Ġ",
        "}"
      ],
      [
        "Ġcon",
        "st"
      ],
      [
        "L",
        "E"
      ],
      [
        "e",
        "m"
      ],
      [
        "U",
        "L"
      ],
      [
        "ĠĠĠĠ",
        "ĠĠ"
      ],
      [
        "c",
        "on"
      ],
      [
        "Ġb",
        "e"
      ],
      [
        "Ġ",
        "int"
      ],
      [
        "er",
        "s"
      ],
      [
        "ĠĠĠĠĠĠĠĠ",
        "ĠĠĠ"
      ],
      [
        "D",
        "E"
      ],
      [
        "Ġ",
        "h"
      ],
      [
        "u",
        "s"
      ],
      [
        "****",
        "****"
      ],
      [
        "se",
        "t"
      ],
      [
        "Ġ",
        "2"
      ],
      [
        "ul",
        "t"
      ],
      [
        "e",
        "f"
      ],
      [
        "M",
        "E"
      ],
      [
        "Ġ",
        "-"
      ],
      [
        "an",
        "d"
      ],
      [
        "o",
        "id"
      ],
      [
        "<",
        "<"
      ],
      [
        "Ġ",
        "O"
      ],
      [
        "iz",
        "e"
      ],
      [
        "pt",
        "ion"
      ],
      [
        "Ġ",
        "//"
      ],
      [
        "ES",
        "P"
      ],
      [
        "T",
        "I"
      ],
      [
        "Ġan",
        "d"
      ],
      [
        "p",
        "ut"
      ],
      [
        "v",
        "e"
      ],
      [
        "Z",
        "B"
      ],
      [
        "00",
        "00"
      ],
      [
        "t",
        "h"
      ],
      [
        "ru",
        "ct"
      ],
      [
        "lo",
        "c"
      ],
      [
        "c",
        "h"
      ],
      [
        "Ġ",
        "N"
      ],
      [
        "u",
        "ff"
      ],
      [
        "p",
        "p"
      ],
      [
        "A",
        "D"
      ],
      [
        "F",
        "F"
      ],
      [
        "al",
        "ue"
      ],
      [
        "1",
        "6"
      ],
      [
        "Ġc",
        "h"
      ],
      [
        "I",
        "D"
      ],
      [
        "al",
        "l"
      ],
      [
        "T",
        "L"
      ],
      [
        ")",
        ","
      ],
      [
        "it",
        "ion"
      ],
      [
        "v",
        "er"
      ],
      [
        "ac",
        "k"
      ],
      [
        "F",
        "I"
      ],
      [
        "c",
        "lu"
      ],
      [
        "es",
        "s"
      ],
      [
        "i",
        "p"
      ],
      [
        "U",
        "T"
      ],
      [
        "ri",
        "b"
      ],
      [
        "Ġ",
        "#"
      ],
      [
        "A",
        "C"
      ],
      [
        "t",
        "ype"
      ],
      [
        "ĠT",
        "he"
      ],
      [
        "Ġ",
        "ESP"
      ],
      [
        "0",
        "1"
      ],
      [
        "rib",
        "ut"
      ],
      [
        "g",
        "ist"
      ],
      [
        "Ġ",
        "\""
      ],
      [
        "Ġ",
        "on"
      ],
      [
        ")",
        ")"
      ],
      [
        "ĠĠĠĠĠĠĠĠ",
        "Ġ"
      ],
      [
        "it",
        "h"
      ],
      [
        "S",
        "I"
      ],
      [
        "b",
        "ri"
      ],
      [
        "bri",
        "ef"
      ],
      [
        "ER",
        "R"
      ],
      [
        "Ġre",
        "turn"
      ],
      [
        "Z",
        "CL"
      ],
      [
        "Ġ",
        "de"
      ],
      [
        "ĠI",
        "n"
      ],
      [
        "Ġ",
        "g"
      ],
      [
        "end",
        "if"
      ],
      [
        "Ġ",
        "W"
      ],
      [
        "I",
        "C"
      ],
      [
        "o",
        "int"
      ],
      [
        "O",
        "M"
      ],
      [
        "clu",
        "de"
      ],
      [
        "a",
        "y"
      ],
      [
        "Ġ",
        "if"
      ],
      [
        "A",
        "N"
      ],
      [
        "Ġu",
        "n"
      ],
      [
        "k",
        "e"
      ],
      [
        "--------",
        "--------"
      ],
      [
        "a",
        "ult"
      ],
      [
        "am",
        "e"
      ],
      [
        "(",
        ")"
      ],
      [
        "P",
        "R"
      ],
      [
        "gist",
        "er"
      ],
      [
        "o",
        "p"
      ],
      [
        "Ġ",
        "ZB"
      ],
      [
        "A",
        "S"
      ],
      [
        "Ġb",
        "y"
      ],
      [
        "Ġ",
        "["
      ],
      [
        "U",
        "S"
      ],
      [
        "O",
        "C"
      ],
      [
        "or",
        "t"
      ],
      [
        "a",
        "se"
      ],
      [
        "i",
        "le"
      ],
      [
        "in",
        "clude"
      ],
      [
        "at",
        "or"
      ],
      [
        "T",
        "C"
      ],
      [
        "Ġ",
        "e"
      ],
      [
        "un",
        "ction"
      ],
      [
        "Ġ",
        "or"
      ],
      [
        "s",
        "er"
      ],
      [
        "u",
        "re"
      ],
      [
        "n",
        "t"
      ],
      [
        "ĉ",
        "ĉ"
      ],
      [
        "I",
        "P"
      ],
      [
        "u",
        "p"
      ],
      [
        "Ġ/*",
        "*"
      ],
      [
        "uff",
        "er"
      ],
      [
        "TL",
        "S"
      ],
      [
        "Ġn",
        "ot"
      ],
      [
        "Ġth",
        "is"
      ],
      [
        "ME",
        "M"
      ],
      [
        "d",
        "d"
      ],
      [
        "ig",
        "n"
      ],
      [
        "l",
        "i"
      ],
      [
        "Ġst",
        "ruct"
      ],
      [
        "ex",
        "t"
      ],
      [
        "ag",
        "e"
      ],
      [
        "om",
        "m"
      ],
      [
        "def",
        "ault"
      ],
      [
        "res",
        "s"
      ],
      [
        "o",
        "c"
      ],
      [
        "Ġ",
        "H"
      ],
      [
        "Ġ",
        "&"
      ],
      [
        "Ġu",
        "se"
      ],
      [
        "s",
        "p"
      ],
      [
        "z",
        "b"
      ],
      [
        "ac",
        "e"
      ],
      [
        "a",
        "p"
      ],
      [
        "t",
        "ribut"
      ],
      [
        "Ġ",
        "en"
      ],
      [
        "ar",
        "t"
      ],
      [
        "v",
        "oid"
      ],
      [
        "a",
        "re"
      ],
      [
        "ĠĠĠĠĠĠĠĠĠĠĠĠĠĠĠĠ",
        "ĠĠĠĠĠĠĠĠ"
      ],
      [
        "s",
        "c"
      ],
      [
        "OR",
        "T"
      ],
      [
        "os",
        "ition"
      ],
      [
        "S",
        "A"
      ],
      [
        "U",
        "N"
      ],
      [
        "loc",
        "k"
      ],
      [
        "er",
        "r"
      ],
      [
        "D",
        "R"
      ],
      [
        "ption",
        "s"
      ],
      [
        "Ġv",
        "alue"
      ],
      [
        "PI",
        "O"
      ],
      [
        "Ġw",
        "ith"
      ],
      [
        "om",
        "p"
      ],
      [
        "im",
        "e"
      ],
      [
        "d",
        "u"
      ],
      [
        "Ġm",
        "ask"
      ],
      [
        "B",
        "it"
      ],
      [
        "ru",
        "pt"
      ],
      [
        "ĠR",
        "e"
      ],
      [
        "it",
        "e"
      ],
      [
        "B",
        "ED"
      ],
      [
        "Ġ",
        ";"
      ],
      [
        "ĠT",
        "h"
      ],
      [
        "E",
        "C"
      ],
      [
        "at",
        "ic"
      ],
      [
        "ad",
        "d"
      ],
      [
        "Ġw",
        "h"
      ],
      [
        "BED",
        "TLS"
      ],
      [
        "c",
        "c"
      ],
      [
        ".",
        "."
      ],
      [
        "C",
        "ON"
      ],
      [
        "r",
        "an"
      ],
      [
        "f",
        "ig"
      ],
      [
        "S",
        "R"
      ],
      [
        "C",
        "R"
      ],
      [
        "i",
        "r"
      ],
      [
        "Ġ",
        "esp"
      ],
      [
        "o",
        "un"
      ],
      [
        "L",
        "I"
      ],
      [
        "h",
        "t"
      ],
      [
        "c",
        "l"
      ],
      [
        "u",
        "int"
      ],
      [
        "IN",
        "G"
      ],
      [
        "F",
        "R"
      ],
      [
        "o",
        "ut"
      ],
      [
        "p",
        "os"
      ],
      [
        "-",
        ">"
      ],
      [
        "p",
        "er"
      ],
      [
        "ke",
        "y"
      ],
      [
        "Ġs",
        "u"
      ],
      [
        "v",
        "ed"
      ],
      [
        "D",
        "I"
      ],
      [
        "f",
        "l"
      ],
      [
        "o",
        "ol"
      ],
      [
        "re",
        "turn"
      ],
      [
        "v",
        "ent"
      ],
      [
        "l",
        "y"
      ],
      [
        "q",
        "u"
      ],
      [
        "i",
        "el"
      ],
      [
        "Ġf",
        "unction"
      ],
      [
        "Ġ",
        "se"
      ],
      [
        "iel",
        "d"
      ],
      [
        "e",
        "ct"
      ],
      [
        "ic",
        "e"
      ],
      [
        "en",
        "se"
      ],
      [
        "o",
        "re"
      ],
      [
        "define",
        "d"
      ],
      [
        "Ġs",
        "ize"
      ],
      [
        "B",
        "IT"
      ],
      [
        "Ġ",
        "3"
      ],
      [
        "Ġp",
        "osition"
      ],
      [
        "Ġ",
        "<"
      ],
      [
        "********",
        "********"
      ],
      [
        "Ġ",
        "at"
      ],
      [
        "Ġd",
        "ata"
      ],
      [
        "M",
        "P"
      ],
      [
        "E",
        "T"
      ],
      [
        "ic",
        "ense"
      ],
      [
        "EN",
        "T"
      ],
      [
        "RE",
        "G"
      ],
      [
        "ĠTh",
        "is"
      ],
      [
        "]",
        ";"
      ],
      [
        "o",
        "w"
      ],
      [
        "O",
        "ptions"
      ],
      [
        "ĠU",
        "S"
      ],
      [
        "SE",
        "L"
      ],
      [
        "Ġ",
        "al"
      ],
      [
        "at",
        "us"
      ],
      [
        "n",
        "el"
      ],
      [
        "d",
        "er"
      ],
      [
        "M",
        "O"
      ],
      [
        "a",
        "st"
      ],
      [
        "================",
        "================"
      ],
      [
        "Ġp",
        "ro"
      ],
      [
        "S",
        "Y"
      ],
      [
        "Ġre",
        "gister"
      ],
      [
        "U",
        "P"
      ],
      [
        "m",
        "ent"
      ],
      [
        "AR",
        "T"
      ],
      [
        "Ġv",
        "oid"
      ],
      [
        "tribut",
        "e"
      ],
      [
        "Ġint",
        "er"
      ],
      [
        "o",
        "d"
      ],
      [
        "ro",
        "m"
      ],
      [
        "con",
        "st"
      ],
      [
        "lo",
        "w"
      ],
      [
        "c",
        "p"
      ],
      [
        "type",
        "def"
      ],
      [
        "Ġ",
        "it"
      ],
      [
        "V",
        "E"
      ],
      [
        "b",
        "it"
      ],
      [
        "I",
        "n"
      ],
      [
        "Ġa",
        "dd"
      ],
      [
        "v",
        "al"
      ],
      [
        "C",
        "P"
      ],
      [
        "Ġth",
        "at"
      ],
      [
        "S",
        "t"
      ],
      [
        "AT",
        "TR"
      ],
      [
        "p",
        "l"
      ],
      [
        "*",
        "/"
      ],
      [
        "A",
        "B"
      ],
      [
        "P",
        "os"
      ],
      [
        "an",
        "nel"
      ],
      [
        "ĠG",
        "PIO"
      ],
      [
        "FI",
        "G"
      ],
      [
        "I",
        "d"
      ],
      [
        "b",
        "u"
      ],
      [
        "Ġch",
        "ar"
      ],
      [
        "ĠE",
        "n"
      ],
      [
        "i",
        "al"
      ],
      [
        "omm",
        "and"
      ],
      [
        "if",
        "i"
      ],
      [
        "Ġ",
        "default"
      ],
      [
        "Ġ",
        "4"
      ],
      [
        "t",
        "e"
      ],
      [
        "it",
        "y"
      ],
      [
        "Ġ",
        "ex"
      ],
      [
        "l",
        "s"
      ],
      [
        "T",
        "ype"
      ],
      [
        "y",
        "p"
      ],
      [
        "Ġ",
        "+"
      ],
      [
        "O",
        "UT"
      ],
      [
        "S",
        "L"
      ],
      [
        "Ġ",
        "V"
      ],
      [
        "0",
        "2"
      ],
      [
        "g",
        "th"
      ],
      [
        "ĠC",
        "ON"
      ],
      [
        "b",
        "er"
      ],
      [
        "as",
        "h"
      ],
      [
        "Y",
        "P"
      ],
      [
        "Ġ",
        "<<"
      ],
      [
        "ĠĠĠĠĠĠĠĠ",
        "ĠĠ"
      ],
      [
        "S",
        "C"
      ],
      [
        "0000",
        "00"
      ],
      [
        "p",
        "r"
      ],
      [
        "b",
        "ed"
      ],
      [
        "Ġ",
        "čĊ"
      ],
      [
        "O",
        "L"
      ],
      [
        "g",
        "e"
      ],
      [
        "O",
        "T"
      ],
      [
        "s",
        "s"
      ],
      [
        "v",
        "ice"
      ],
      [
        "re",
        "ad"
      ],
      [
        "Ġ",
        "set"
      ],
      [
        "6",
        "4"
      ],
      [
        "o",
        "f"
      ],
      [
        "E",
        "X"
      ],
      [
        "D",
        "C"
      ],
      [
        "Ġcon",
        "t"
      ],
      [
        "ro",
        "up"
      ],
      [
        "b",
        "m"
      ],
      [
        "IT",
        "Y"
      ],
      [
        "add",
        "r"
      ],
      [
        "ĠC",
        "on"
      ],
      [
        "il",
        "l"
      ],
      [
        "ĠT",
        "C"
      ],
      [
        "r",
        "y"
      ],
      [
        "ri",
        "g"
      ],
      [
        "Ġo",
        "ut"
      ],
      [
        "A",
        "P"
      ],
      [
        "S",
        "FR"
      ],
      [
        "O",
        "P"
      ],
      [
        "ac",
        "he"
      ],
      [
        "t",
        "ls"
      ],
      [
        "u",
        "b"
      ],
      [
        "b",
        "p"
      ],
      [
        "P",
        "ORT"
      ],
      [
        "d",
        "ata"
      ],
      [
        "s",
        "k"
      ],
      [
        "Ġ",
        "zb"
      ],
      [
        "i",
        "ve"
      ],
      [
        "U",
        "SE"
      ],
      [
        "cc",
        "ess"
      ],
      [
        "st",
        "er"
      ],
      [
        "Ġc",
        "all"
      ],
      [
        "g",
        "c"
      ],
      [
        "T",
        "H"
      ],
      [
        "Ġ",
        "r"
      ],
      [
        "a",
        "in"
      ],
      [
        "ĠIn",
        "ter"
      ],
      [
        "C",
        "TR"
      ],
      [
        "Ġ",
        "|"
      ],
      [
        "1",
        "5"
      ],
      [
        "um",
        "ber"
      ],
      [
        "B",
        "U"
      ],
      [
        "im",
        "er"
      ],
      [
        "q",
        "ue"
      ],
      [
        "p",
        "oint"
      ],
      [
        "l",
        "ic"
      ],
      [
        "s",
        "ize"
      ],
      [
        "op",
        "y"
      ],
      [
        "1",
        "2"
      ],
      [
        "A",
        "G"
      ],
      [
        "I",
        "OM"
      ],
      [
        "MO",
        "DE"
      ],
      [
        "C",
        "E"
      ],
      [
        "u",
        "st"
      ],
      [
        "ĠS",
        "e"
      ],
      [
        "l",
        "ine"
      ],
      [
        "ST",
        "AT"
      ],
      [
        "ĠS",
        "t"
      ],
      [
        "U",
        "M"
      ],
      [
        "F",
        "L"
      ],
      [
        "am",
        "esp"
      ],
      [
        "g",
        "et"
      ],
      [
        "b",
        "ack"
      ],
      [
        "ĠM",
        "BEDTLS"
      ],
      [
        "amesp",
        "ace"
      ],
      [
        "C",
        "N"
      ],
      [
        "i",
        "v"
      ],
      [
        "(",
        "__"
      ],
      [
        "R",
        "A"
      ],
      [
        "at",
        "ed"
      ],
      [
        "M",
        "sk"
      ],
      [
        "a",
        "ct"
      ],
      [
        "o",
        "u"
      ],
      [
        "O",
        "W"
      ],
      [
        "ro",
        "l"
      ],
      [
        "pt",
        "r"
      ],
      [
        "bed",
        "tls"
      ],
      [
        "Ġb",
        "uffer"
      ],
      [
        "1",
        "0"
      ],
      [
        "s",
        "ign"
      ],
      [
        "Ġf",
        "rom"
      ],
      [
        "pe",
        "c"
      ],
      [
        "Ġa",
        "re"
      ],
      [
        "V",
        "AL"
      ],
      [
        "Ġ",
        "defined"
      ],
      [
        "I",
        "L"
      ],
      [
        "B",
        "C"
      ],
      [
        "ĠS",
        "PI"
      ],
      [
        "ĠL",
        "icense"
      ],
      [
        "i",
        "de"
      ],
      [
        "m",
        "a"
      ],
      [
        "Ġt",
        "ype"
      ],
      [
        "Ġ",
        "key"
      ],
      [
        "or",
        "m"
      ],
      [
        "en",
        "gth"
      ],
      [
        "Ġm",
        "ode"
      ],
      [
        "en",
        "s"
      ],
      [
        "L",
        "OC"
      ],
      [
        "T",
        "O"
      ],
      [
        "Ġa",
        "s"
      ],
      [
        "sc",
        "ri"
      ],
      [
        "in",
        "o"
      ],
      [
        "ran",
        "s"
      ],
      [
        "en",
        "er"
      ],
      [
        "h",
        "a"
      ],
      [
        "if",
        "ic"
      ],
      [
        "e",
        "p"
      ],
      [
        "I",
        "M"
      ],
      [
        "ĠĠĠĠĠĠĠĠ",
        "ĠĠĠĠ"
      ],
      [
        "CTR",
        "L"
      ],
      [
        "Ġuse",
        "d"
      ],
      [
        "du",
        "ino"
      ],
      [
        "n",
        "um"
      ],
      [
        "i",
        "o"
      ],
      [
        "ĠUS",
        "B"
      ],
      [
        "en",
        "ame"
      ],
      [
        "Ġbit",
        "pos"
      ],
      [
        "oint",
        "er"
      ],
      [
        "Ġn",
        "e"
      ],
      [
        "i",
        "re"
      ],
      [
        "u",
        "il"
      ],
      [
        "ess",
        "age"
      ],
      [
        "K",
        "E"
      ],
      [
        "yp",
        "ename"
      ],
      [
        "Ġp",
        "er"
      ],
      [
        "and",
        "le"
      ],
      [
        "V",
        "ER"
      ],
      [
        "F",
        "A"
      ],
      [
        "Ġ(",
        "("
      ],
      [
        "t",
        "r"
      ],
      [
        "Ġs",
        "h"
      ],
      [
        "Ġ",
        "5"
      ],
      [
        "o",
        "ur"
      ],
      [
        "ĠInter",
        "rupt"
      ],
      [
        "st",
        "ruct"
      ],
      [
        "Ġre",
        "ser"
      ],
      [
        "Ġin",
        "put"
      ],
      [
        "th",
        "er"
      ],
      [
        "X",
        "X"
      ],
      [
        "M",
        "S"
      ],
      [
[...]
